{
    "version": "1.0",
    "truncation": null,
    "padding": null,
    "added_tokens": [
      {
        "id": 0,
        "content": "[UNK]",
        "single_word": false,
        "lstrip": false,
        "rstrip": false,
        "normalized": false,
        "special": true
      },
      {
        "id": 1,
        "content": "[CLS]",
        "single_word": false,
        "lstrip": false,
        "rstrip": false,
        "normalized": false,
        "special": true
      },
      {
        "id": 2,
        "content": "[SEP]",
        "single_word": false,
        "lstrip": false,
        "rstrip": false,
        "normalized": false,
        "special": true
      },
      {
        "id": 3,
        "content": "[PAD]",
        "single_word": false,
        "lstrip": false,
        "rstrip": false,
        "normalized": false,
        "special": true
      },
      {
        "id": 4,
        "content": "[MASK]",
        "single_word": false,
        "lstrip": false,
        "rstrip": false,
        "normalized": false,
        "special": true
      },
      {
        "id": 5,
        "content": "[PAR]",
        "single_word": false,
        "lstrip": false,
        "rstrip": false,
        "normalized": false,
        "special": true
      },
      {
        "id": 6,
        "content": "[TAB]",
        "single_word": false,
        "lstrip": false,
        "rstrip": false,
        "normalized": false,
        "special": true
      }
    ],
    "normalizer": null,
    "pre_tokenizer": {
      "type": "Sequence",
      "pretokenizers": [
        {
          "type": "ByteLevel",
          "add_prefix_space": true,
          "trim_offsets": true,
          "use_regex": true
        },
        {
          "type": "Digits",
          "individual_digits": true
        }
      ]
    },
    "post_processor": {
      "type": "TemplateProcessing",
      "single": [
        {
          "SpecialToken": {
            "id": "[CLS]",
            "type_id": 0
          }
        },
        {
          "Sequence": {
            "id": "A",
            "type_id": 0
          }
        },
        {
          "SpecialToken": {
            "id": "[SEP]",
            "type_id": 0
          }
        }
      ],
      "pair": [
        {
          "SpecialToken": {
            "id": "[CLS]",
            "type_id": 0
          }
        },
        {
          "Sequence": {
            "id": "A",
            "type_id": 0
          }
        },
        {
          "SpecialToken": {
            "id": "[SEP]",
            "type_id": 0
          }
        },
        {
          "Sequence": {
            "id": "B",
            "type_id": 1
          }
        },
        {
          "SpecialToken": {
            "id": "[SEP]",
            "type_id": 1
          }
        }
      ],
      "special_tokens": {
        "[CLS]": {
          "id": "[CLS]",
          "ids": [
            1
          ],
          "tokens": [
            "[CLS]"
          ]
        },
        "[SEP]": {
          "id": "[SEP]",
          "ids": [
            2
          ],
          "tokens": [
            "[SEP]"
          ]
        }
      }
    },
    "decoder": {
      "type": "ByteLevel",
      "add_prefix_space": true,
      "trim_offsets": true,
      "use_regex": true
    },
    "model": {
      "type": "WordPiece",
      "unk_token": "[UNK]",
      "continuing_subword_prefix": "",
      "max_input_chars_per_word": 100,
      "vocab": {
        "[UNK]": 0,
        "[CLS]": 1,
        "[SEP]": 2,
        "[PAD]": 3,
        "[MASK]": 4,
        "[PAR]": 5,
        "[TAB]": 6,
        "!": 7,
        "\"": 8,
        "#": 9,
        "$": 10,
        "%": 11,
        "&": 12,
        "'": 13,
        "(": 14,
        ")": 15,
        "*": 16,
        "+": 17,
        ",": 18,
        "-": 19,
        ".": 20,
        "/": 21,
        "0": 22,
        "1": 23,
        "2": 24,
        "3": 25,
        "4": 26,
        "5": 27,
        "6": 28,
        "7": 29,
        "8": 30,
        "9": 31,
        ":": 32,
        ";": 33,
        "<": 34,
        "=": 35,
        ">": 36,
        "?": 37,
        "@": 38,
        "A": 39,
        "B": 40,
        "C": 41,
        "D": 42,
        "E": 43,
        "F": 44,
        "G": 45,
        "H": 46,
        "I": 47,
        "J": 48,
        "K": 49,
        "L": 50,
        "M": 51,
        "N": 52,
        "O": 53,
        "P": 54,
        "Q": 55,
        "R": 56,
        "S": 57,
        "T": 58,
        "U": 59,
        "V": 60,
        "W": 61,
        "X": 62,
        "Y": 63,
        "Z": 64,
        "[": 65,
        "\\": 66,
        "]": 67,
        "^": 68,
        "_": 69,
        "`": 70,
        "a": 71,
        "b": 72,
        "c": 73,
        "d": 74,
        "e": 75,
        "f": 76,
        "g": 77,
        "h": 78,
        "i": 79,
        "j": 80,
        "k": 81,
        "l": 82,
        "m": 83,
        "n": 84,
        "o": 85,
        "p": 86,
        "q": 87,
        "r": 88,
        "s": 89,
        "t": 90,
        "u": 91,
        "v": 92,
        "w": 93,
        "x": 94,
        "y": 95,
        "z": 96,
        "{": 97,
        "|": 98,
        "}": 99,
        "~": 100,
        "¡": 101,
        "¢": 102,
        "£": 103,
        "¤": 104,
        "¥": 105,
        "¦": 106,
        "§": 107,
        "¨": 108,
        "©": 109,
        "ª": 110,
        "«": 111,
        "¬": 112,
        "®": 113,
        "¯": 114,
        "°": 115,
        "±": 116,
        "²": 117,
        "³": 118,
        "´": 119,
        "µ": 120,
        "¶": 121,
        "·": 122,
        "¸": 123,
        "¹": 124,
        "º": 125,
        "»": 126,
        "¼": 127,
        "½": 128,
        "¾": 129,
        "¿": 130,
        "Â": 131,
        "Ã": 132,
        "Ä": 133,
        "Å": 134,
        "Æ": 135,
        "Ç": 136,
        "È": 137,
        "É": 138,
        "Ê": 139,
        "Ë": 140,
        "Ì": 141,
        "Í": 142,
        "Î": 143,
        "Ï": 144,
        "Ð": 145,
        "Ñ": 146,
        "Ò": 147,
        "Ó": 148,
        "Ô": 149,
        "Õ": 150,
        "Ö": 151,
        "×": 152,
        "Ø": 153,
        "Ù": 154,
        "Ú": 155,
        "Û": 156,
        "Ü": 157,
        "Ý": 158,
        "Þ": 159,
        "ß": 160,
        "à": 161,
        "á": 162,
        "â": 163,
        "ã": 164,
        "ä": 165,
        "å": 166,
        "æ": 167,
        "ç": 168,
        "è": 169,
        "é": 170,
        "ê": 171,
        "ë": 172,
        "ì": 173,
        "í": 174,
        "î": 175,
        "ï": 176,
        "ð": 177,
        "Ġ": 178,
        "Ģ": 179,
        "ģ": 180,
        "Ĥ": 181,
        "ĥ": 182,
        "Ħ": 183,
        "ħ": 184,
        "Ĩ": 185,
        "ĩ": 186,
        "Ī": 187,
        "ī": 188,
        "Ĭ": 189,
        "ĭ": 190,
        "Į": 191,
        "į": 192,
        "İ": 193,
        "ı": 194,
        "Ĳ": 195,
        "ĳ": 196,
        "Ĵ": 197,
        "ĵ": 198,
        "Ķ": 199,
        "ķ": 200,
        "ĸ": 201,
        "Ĺ": 202,
        "ĺ": 203,
        "Ļ": 204,
        "ļ": 205,
        "Ľ": 206,
        "ľ": 207,
        "Ŀ": 208,
        "ŀ": 209,
        "Ł": 210,
        "ł": 211,
        "Ń": 212,
        "Ġt": 213,
        "he": 214,
        "Ġ\"": 215,
        "Ġa": 216,
        "in": 217,
        "Ġthe": 218,
        "re": 219,
        ".\"": 220,
        "Ġw": 221,
        "ou": 222,
        "Ġs": 223,
        "on": 224,
        "er": 225,
        "ha": 226,
        "nd": 227,
        "is": 228,
        "it": 229,
        "Ġb": 230,
        "Ġo": 231,
        "Ġc": 232,
        "Ġm": 233,
        "Ġf": 234,
        "ing": 235,
        "or": 236,
        "ed": 237,
        "ll": 238,
        "Ġd": 239,
        "an": 240,
        "en": 241,
        "Ġto": 242,
        "es": 243,
        "Ġp": 244,
        "Ġy": 245,
        "Ġof": 246,
        "ar": 247,
        "Ġin": 248,
        "at": 249,
        "Ġyou": 250,
        "Ġand": 251,
        "Ġl": 252,
        "hat": 253,
        "as": 254,
        "Ġg": 255,
        "om": 256,
        "Ġn": 257,
        "ĠI": 258,
        "?\"": 259,
        "ic": 260,
        "ow": 261,
        "ve": 262,
        "le": 263,
        "ot": 264,
        "Ġh": 265,
        "Ġhe": 266,
        "al": 267,
        "'s": 268,
        "et": 269,
        "Ġha": 270,
        "us": 271,
        "Ġth": 272,
        "ay": 273,
        "Ġit": 274,
        "Ġbe": 275,
        "Ġthat": 276,
        "Ġis": 277,
        "Ġon": 278,
        "ion": 279,
        "id": 280,
        "Ġe": 281,
        "gh": 282,
        "ld": 283,
        "Ġre": 284,
        "Ġwas": 285,
        "ut": 286,
        "ent": 287,
        "im": 288,
        "ĠT": 289,
        "ac": 290,
        "Ġwe": 291,
        "ver": 292,
        "ĠS": 293,
        "Ġfor": 294,
        "am": 295,
        "ly": 296,
        "ĠA": 297,
        "ri": 298,
        "ro": 299,
        "st": 300,
        "ad": 301,
        "ir": 302,
        "se": 303,
        "ke": 304,
        "Ġst": 305,
        "'t": 306,
        "oo": 307,
        "ght": 308,
        "ĠC": 309,
        "ĠM": 310,
        "out": 311,
        "ith": 312,
        "Ġme": 313,
        "Ġk": 314,
        "Ġu": 315,
        "!\"": 316,
        "Ġan": 317,
        "all": 318,
        "Ġwith": 319,
        "ur": 320,
        "Ġas": 321,
        "Ġdo": 322,
        "ec": 323,
        "her": 324,
        "..": 325,
        "ĠB": 326,
        "ĠH": 327,
        "ill": 328,
        "ter": 329,
        "if": 330,
        "Ġwh": 331,
        "ome": 332,
        "ch": 333,
        "ce": 334,
        "Ġare": 335,
        "You": 336,
        "Ġhave": 337,
        "il": 338,
        "Ġnot": 339,
        "Ġat": 340,
        "ĠThe": 341,
        "Ġthis": 342,
        "ould": 343,
        "ust": 344,
        "ĠP": 345,
        "Ġse": 346,
        "ra": 347,
        "Ġgo": 348,
        "ant": 349,
        "Ġli": 350,
        "ation": 351,
        "Ġkn": 352,
        "op": 353,
        "ea": 354,
        "un": 355,
        "The": 356,
        "ge": 357,
        "ol": 358,
        "Ġhis": 359,
        "ĠD": 360,
        "and": 361,
        "ell": 362,
        "ul": 363,
        "rom": 364,
        "Ġknow": 365,
        "ore": 366,
        "Ġj": 367,
        "Ġne": 368,
        "ĠW": 369,
        "ĠG": 370,
        "th": 371,
        "pp": 372,
        "ct": 373,
        "Ġcan": 374,
        "ain": 375,
        "our": 376,
        "el": 377,
        "ĠR": 378,
        "um": 379,
        "ĠL": 380,
        "Ġso": 381,
        "ist": 382,
        "ĠF": 383,
        "Ġall": 384,
        "Ġthey": 385,
        "Ġyour": 386,
        "em": 387,
        "Ġmy": 388,
        "Ġal": 389,
        "est": 390,
        "Ġab": 391,
        "ers": 392,
        "Ġfrom": 393,
        "Ġby": 394,
        "art": 395,
        "ess": 396,
        "Ġr": 397,
        "ĠJ": 398,
        "Ġwhat": 399,
        "Ġ(": 400,
        "Ġsh": 401,
        "Ġher": 402,
        "os": 403,
        "Ġor": 404,
        "ĠN": 405,
        "Ġcon": 406,
        "Ġone": 407,
        "Ġwhe": 408,
        "nt": 409,
        "ight": 410,
        "Ġup": 411,
        "ie": 412,
        "ig": 413,
        "Ġthere": 414,
        "'re": 415,
        "Ġhad": 416,
        "Ġsu": 417,
        "Ġdon": 418,
        "red": 419,
        "han": 420,
        "ally": 421,
        "qu": 422,
        "ry": 423,
        "Ġcom": 424,
        "ab": 425,
        "Ġout": 426,
        "Ġbut": 427,
        "Ġhim": 428,
        "ack": 429,
        "Ġwor": 430,
        "ĠE": 431,
        "Ġpl": 432,
        "ook": 433,
        "ood": 434,
        "ate": 435,
        "very": 436,
        "What": 437,
        "res": 438,
        "Ġlike": 439,
        "Ġus": 440,
        "'m": 441,
        "ive": 442,
        "Ġde": 443,
        "Ġshe": 444,
        "ake": 445,
        "It": 446,
        "od": 447,
        "ame": 448,
        "ong": 449,
        "Ġsa": 450,
        "Ġpro": 451,
        "ink": 452,
        "Ġex": 453,
        "ĠO": 454,
        "Ġv": 455,
        "Ġabout": 456,
        "Ġget": 457,
        "And": 458,
        "Ġwere": 459,
        "ind": 460,
        "ast": 461,
        "ort": 462,
        "ard": 463,
        "one": 464,
        "rou": 465,
        "ck": 466,
        "Ġjust": 467,
        "Ġsp": 468,
        "ity": 469,
        "ber": 470,
        "He": 471,
        "right": 472,
        "ear": 473,
        "ich": 474,
        "ies": 475,
        "...\"": 476,
        "Ġdid": 477,
        "ect": 478,
        "Ġwho": 479,
        "'ll": 480,
        "Ġhere": 481,
        "Ġno": 482,
        "ak": 483,
        "ep": 484,
        ",\"": 485,
        "Ġthem": 486,
        "ime": 487,
        "ine": 488,
        "eah": 489,
        "Ġwant": 490,
        "Ġman": 491,
        "ĠK": 492,
        "Ġwould": 493,
        "Ġif": 494,
        "Ġthink": 495,
        "ud": 496,
        "ap": 497,
        "ven": 498,
        "Ġwill": 499,
        "Ġsome": 500,
        "ĠHe": 501,
        "ous": 502,
        "Ġint": 503,
        "hing": 504,
        "ost": 505,
        "own": 506,
        "ice": 507,
        "itt": 508,
        "Ġany": 509,
        "Ġright": 510,
        "ide": 511,
        "Ġhas": 512,
        "ag": 513,
        "Oh": 514,
        "ment": 515,
        "Ġgot": 516,
        "We": 517,
        "ther": 518,
        "hi": 519,
        "No": 520,
        "use": 521,
        "Ġsee": 522,
        "Ġwhich": 523,
        "Ġwhen": 524,
        "ure": 525,
        "Ġag": 526,
        "Ġsay": 527,
        "Ġtw": 528,
        "Yeah": 529,
        "Ġbeen": 530,
        "end": 531,
        "'ve": 532,
        "Ġsaid": 533,
        "iv": 534,
        "That": 535,
        "Ġtime": 536,
        "ian": 537,
        "ĠIt": 538,
        "way": 539,
        "ace": 540,
        "ound": 541,
        "Ġbec": 542,
        "...": 543,
        "Ġpe": 544,
        "ĠIn": 545,
        "ove": 546,
        "ia": 547,
        "ff": 548,
        "Ġnow": 549,
        "ick": 550,
        "--": 551,
        "ĠU": 552,
        "Ġcl": 553,
        "are": 554,
        "ose": 555,
        "Ġlook": 556,
        "ause": 557,
        "lf": 558,
        "Ġle": 559,
        "ople": 560,
        "ish": 561,
        "Ġtheir": 562,
        "na": 563,
        "Ġmore": 564,
        "reat": 565,
        "so": 566,
        "Ġgoing": 567,
        "ary": 568,
        "So": 569,
        "Ġthen": 570,
        "ran": 571,
        "Ġcould": 572,
        "ree": 573,
        "other": 574,
        "Ġother": 575,
        "Ġover": 576,
        "Ġoff": 577,
        "ue": 578,
        "Ġback": 579,
        "ĠSt": 580,
        "irst": 581,
        "ite": 582,
        "his": 583,
        "ond": 584,
        "Ġqu": 585,
        "ble": 586,
        "age": 587,
        "Ġpeople": 588,
        "Ġro": 589,
        "act": 590,
        "Ġfe": 591,
        "Ġthing": 592,
        "orn": 593,
        "Ġwork": 594,
        "ass": 595,
        "Ġvery": 596,
        "Ġtwo": 597,
        "But": 598,
        "fter": 599,
        "pt": 600,
        "Wh": 601,
        "per": 602,
        "Ġgood": 603,
        "Ġtoo": 604,
        "ount": 605,
        "ord": 606,
        "Ġen": 607,
        "Ġcomp": 608,
        "og": 609,
        "omet": 610,
        "ci": 611,
        "Ġfirst": 612,
        "ub": 613,
        "Ġinto": 614,
        "ittle": 615,
        "Ġar": 616,
        "ase": 617,
        "mer": 618,
        "ated": 619,
        "Well": 620,
        "ere": 621,
        "ov": 622,
        "ire": 623,
        "ions": 624,
        "kay": 625,
        "hed": 626,
        "Ġdown": 627,
        "Ġhow": 628,
        "Ġun": 629,
        "alk": 630,
        "oll": 631,
        "Ġthan": 632,
        "oy": 633,
        "erm": 634,
        "ade": 635,
        "Ġyear": 636,
        "Ġpart": 637,
        "Ġway": 638,
        "ĠV": 639,
        "Ġour": 640,
        "Ġam": 641,
        "ru": 642,
        "Ġlittle": 643,
        "Ġcall": 644,
        "pl": 645,
        "iz": 646,
        "Ġim": 647,
        "Ġbl": 648,
        "Ġcome": 649,
        "Ġonly": 650,
        "Ġplay": 651,
        "Ġalso": 652,
        "Ġmean": 653,
        "Ġpr": 654,
        "cc": 655,
        "ater": 656,
        "Ġwhere": 657,
        "nder": 658,
        "Ġagain": 659,
        "Ġevery": 660,
        "ough": 661,
        "Yes": 662,
        "ach": 663,
        "Ġad": 664,
        "ife": 665,
        "ne": 666,
        "ng": 667,
        "urn": 668,
        "Ġsomet": 669,
        "Ġbet": 670,
        "Ġday": 671,
        "oc": 672,
        "Ġneed": 673,
        "har": 674,
        "wn": 675,
        "we": 676,
        "ty": 677,
        "ress": 678,
        "Ġact": 679,
        "uch": 680,
        "iss": 681,
        "Ġmake": 682,
        "Ġwell": 683,
        "Ġtr": 684,
        "Ġafter": 685,
        "Ġtake": 686,
        "fore": 687,
        "ew": 688,
        "ence": 689,
        "Ġgu": 690,
        "Ġ'": 691,
        "Ġcont": 692,
        "self": 693,
        "av": 694,
        "ory": 695,
        "Ġbecause": 696,
        "Ġdis": 697,
        "Ġsc": 698,
        "ark": 699,
        "able": 700,
        "Ġte": 701,
        "ical": 702,
        "ign": 703,
        "Ġshould": 704,
        "Ġlet": 705,
        "thing": 706,
        "au": 707,
        "Ġpre": 708,
        "Ġreally": 709,
        "ip": 710,
        "Ġtell": 711,
        "ought": 712,
        "int": 713,
        "ool": 714,
        "Ġhapp": 715,
        "orm": 716,
        "ict": 717,
        "Ġfl": 718,
        "here": 719,
        "Ġwr": 720,
        "Ġapp": 721,
        "ather": 722,
        "ob": 723,
        "Ġunder": 724,
        "Ġbu": 725,
        "onna": 726,
        "Ġthese": 727,
        "ens": 728,
        "Ġbr": 729,
        "ied": 730,
        "ft": 731,
        "Ġmuch": 732,
        "ial": 733,
        "Ġdoes": 734,
        "old": 735,
        "les": 736,
        "Ġsomething": 737,
        "This": 738,
        "hen": 739,
        "Ġres": 740,
        "They": 741,
        "ult": 742,
        "Ġ[": 743,
        "'d": 744,
        "Ġnew": 745,
        "Ġper": 746,
        "ile": 747,
        "Ġpo": 748,
        "Ġput": 749,
        "ody": 750,
        "Ġmade": 751,
        "Ġgonna": 752,
        "round": 753,
        "ĠY": 754,
        "ang": 755,
        "Ġlong": 756,
        "ance": 757,
        "cl": 758,
        "iff": 759,
        "ons": 760,
        "ving": 761,
        "Ġser": 762,
        "ĠCh": 763,
        "ved": 764,
        "uck": 765,
        "Ġch": 766,
        "row": 767,
        "Ġnever": 768,
        "Ġtalk": 769,
        "ull": 770,
        "ps": 771,
        "Ġbefore": 772,
        "Ġdidn": 773,
        "ations": 774,
        "ĠUn": 775,
        "There": 776,
        "âĢ": 777,
        "How": 778,
        "Ġeven": 779,
        "Ġer": 780,
        "land": 781,
        "Okay": 782,
        "Ġmay": 783,
        "ting": 784,
        "Ġits": 785,
        "ks": 786,
        "du": 787,
        "ily": 788,
        "ock": 789,
        "rough": 790,
        "ath": 791,
        "Ġcar": 792,
        "Do": 793,
        "te": 794,
        "Ġrem": 795,
        "ouse": 796,
        "Ġsm": 797,
        "Ġke": 798,
        "Ġyears": 799,
        "ady": 800,
        "port": 801,
        "be": 802,
        "vers": 803,
        "She": 804,
        "Ġhand": 805,
        "ition": 806,
        "ious": 807,
        "ward": 808,
        "ren": 809,
        "ember": 810,
        "ors": 811,
        "Ġrec": 812,
        "ates": 813,
        "ually": 814,
        "ix": 815,
        "Ġthrough": 816,
        "ise": 817,
        "Ġmany": 818,
        "Ġhel": 819,
        "vel": 820,
        "If": 821,
        "Ġsec": 822,
        "Ġold": 823,
        "ried": 824,
        "Ġcomm": 825,
        "ĠShe": 826,
        "ful": 827,
        "Ġmost": 828,
        "Ġgreat": 829,
        "Ġchan": 830,
        "Ġdiff": 831,
        "Ġstart": 832,
        "Ġthree": 833,
        "ee": 834,
        "igh": 835,
        "Ġlife": 836,
        "ited": 837,
        "get": 838,
        "ail": 839,
        "Ġthought": 840,
        "ince": 841,
        "day": 842,
        "Ġthings": 843,
        "aw": 844,
        "ple": 845,
        "ave": 846,
        "ican": 847,
        "pe": 848,
        "Ġthose": 849,
        "Ġbel": 850,
        "oot": 851,
        "Why": 852,
        "Ġsha": 853,
        "Ġstill": 854,
        "Ġdes": 855,
        "Ġaway": 856,
        "ves": 857,
        "oss": 858,
        "Ġfind": 859,
        "Ġused": 860,
        "Ġask": 861,
        "ings": 862,
        "Ġmust": 863,
        "tain": 864,
        "Let": 865,
        "Ġhome": 866,
        "Ġlast": 867,
        "Ġlove": 868,
        "Ġfound": 869,
        "ever": 870,
        "hes": 871,
        "Ġco": 872,
        "ys": 873,
        "Ġhelp": 874,
        "riend": 875,
        "Ġdoing": 876,
        "Ġi": 877,
        "Ġra": 878,
        "Ġown": 879,
        "imes": 880,
        "hild": 881,
        "Ġshow": 882,
        "ents": 883,
        "Ġlea": 884,
        "Ġwon": 885,
        "ĠMr": 886,
        "Ġwent": 887,
        "Ġcame": 888,
        "Ġgive": 889,
        "Ġmin": 890,
        "Ġatt": 891,
        "Now": 892,
        "Ġend": 893,
        "ational": 894,
        "Ġbeing": 895,
        "âĻ": 896,
        "ph": 897,
        "irl": 898,
        "xt": 899,
        "oney": 900,
        "ened": 901,
        "gan": 902,
        "Ġname": 903,
        "lease": 904,
        "oh": 905,
        "ĠMar": 906,
        "Ġcalled": 907,
        "Ġcount": 908,
        "ction": 909,
        "tern": 910,
        "gin": 911,
        "Ġear": 912,
        "ced": 913,
        "oth": 914,
        "chool": 915,
        "Ġmov": 916,
        "Don": 917,
        "ny": 918,
        "Ġfam": 919,
        "Is": 920,
        "ait": 921,
        "Ġdec": 922,
        "Ġchild": 923,
        "Ġsame": 924,
        "atch": 925,
        "Ġsuch": 926,
        "als": 927,
        "âĢĵ": 928,
        "Ġcare": 929,
        "body": 930,
        "up": 931,
        "ways": 932,
        "Ġcour": 933,
        "Come": 934,
        "rit": 935,
        "âĻª": 936,
        "ces": 937,
        "Ġkind": 938,
        "ning": 939,
        "Ġfeel": 940,
        "ĠAmer": 941,
        "IN": 942,
        "man": 943,
        "Ġtry": 944,
        "ident": 945,
        "Ġbig": 946,
        "Ġtra": 947,
        "ĠAnd": 948,
        "Ġhead": 949,
        "my": 950,
        "\".": 951,
        "ug": 952,
        "Ġlot": 953,
        "Ġnight": 954,
        "Ġworld": 955,
        "Ġsupp": 956,
        "Ġsl": 957,
        "Ġplace": 958,
        "ont": 959,
        "aking": 960,
        "Ġpol": 961,
        "Ġwhy": 962,
        "air": 963,
        "Ġdiffere": 964,
        "erson": 965,
        "Ġwom": 966,
        "ham": 967,
        "ild": 968,
        "Ġfin": 969,
        "Ġfriend": 970,
        "Ġaround": 971,
        "Ġhar": 972,
        "ER": 973,
        "Ġind": 974,
        "Ġmar": 975,
        "form": 976,
        "Ġnum": 977,
        "Ġacc": 978,
        "side": 979,
        "Where": 980,
        "ute": 981,
        "Ġkill": 982,
        "Hey": 983,
        "Ġuse": 984,
        "ating": 985,
        "uring": 986,
        "Ġmight": 987,
        "Ġgr": 988,
        "ased": 989,
        "Than": 990,
        "Ġop": 991,
        "any": 992,
        "ubl": 993,
        "Ġrel": 994,
        "Ġanother": 995,
        "ss": 996,
        "ĠAl": 997,
        "In": 998,
        "ower": 999,
        ").": 1000,
        "ans": 1001,
        "Ġturn": 1002,
        "Ġset": 1003,
        "und": 1004,
        "outh": 1005,
        "Ġche": 1006,
        "\",": 1007,
        "Ġele": 1008,
        "Ġalways": 1009,
        "Ġhouse": 1010,
        "All": 1011,
        "pect": 1012,
        "Ġph": 1013,
        "ween": 1014,
        "ener": 1015,
        "Ġac": 1016,
        "ics": 1017,
        "orry": 1018,
        "ĠThey": 1019,
        "Ġfour": 1020,
        "ĠAr": 1021,
        "Ġanything": 1022,
        "Ġleft": 1023,
        "Ġgirl": 1024,
        "Ġreg": 1025,
        "Ġpres": 1026,
        "clud": 1027,
        "),": 1028,
        "ts": 1029,
        "Ġbetter": 1030,
        "ible": 1031,
        "ĠThis": 1032,
        "mb": 1033,
        "Ġdone": 1034,
        "Ġsur": 1035,
        "ah": 1036,
        "Ġbit": 1037,
        "Ġsure": 1038,
        "My": 1039,
        "Who": 1040,
        "vent": 1041,
        "gg": 1042,
        "led": 1043,
        "ason": 1044,
        "ĠAn": 1045,
        "Ġsy": 1046,
        "Ġkeep": 1047,
        "Ġform": 1048,
        "ular": 1049,
        "ness": 1050,
        "Ġel": 1051,
        "Ġboy": 1052,
        "ier": 1053,
        "Ġrun": 1054,
        "ib": 1055,
        "der": 1056,
        "Ġmon": 1057,
        "Ġreal": 1058,
        "Ġbetween": 1059,
        "az": 1060,
        "ĠAs": 1061,
        "aught": 1062,
        "ual": 1063,
        "ins": 1064,
        "Ġbelie": 1065,
        "Not": 1066,
        "io": 1067,
        "||": 1068,
        "Ġtold": 1069,
        "Ġsecond": 1070,
        "Ġknown": 1071,
        "ram": 1072,
        "ollow": 1073,
        "ott": 1074,
        "Ġchar": 1075,
        "Ġunt": 1076,
        "ished": 1077,
        "ird": 1078,
        "ered": 1079,
        "Ġschool": 1080,
        "ters": 1081,
        "Ġgl": 1082,
        "Ġent": 1083,
        "Ġob": 1084,
        "Ġword": 1085,
        "ĠNew": 1086,
        "Ġstud": 1087,
        "uh": 1088,
        "ike": 1089,
        "Ġdist": 1090,
        "Ġmoney": 1091,
        "ars": 1092,
        "Ġever": 1093,
        "Ġret": 1094,
        "ĠBut": 1095,
        "Ġdifferent": 1096,
        "ale": 1097,
        "Ġwhile": 1098,
        "ject": 1099,
        "Look": 1100,
        "ĠTH": 1101,
        "Ġmat": 1102,
        "Ġey": 1103,
        "Ġmom": 1104,
        "hip": 1105,
        "ner": 1106,
        "Ġperson": 1107,
        "St": 1108,
        "Ġbo": 1109,
        "Ġbus": 1110,
        "ĠAmerican": 1111,
        "oun": 1112,
        "Ġsub": 1113,
        "Ġcons": 1114,
        "Ġpoint": 1115,
        "ret": 1116,
        "Ġcr": 1117,
        "ork": 1118,
        "Ġinclud": 1119,
        "Are": 1120,
        "akes": 1121,
        "Ġcourse": 1122,
        "Ġspec": 1123,
        "Ġmus": 1124,
        "Ġass": 1125,
        "Ġuntil": 1126,
        "Ġinv": 1127,
        "eg": 1128,
        "Ġerm": 1129,
        "Ġokay": 1130,
        "Ġbook": 1131,
        "Ġmet": 1132,
        "Ġmen": 1133,
        "Ġinst": 1134,
        "OU": 1135,
        "olog": 1136,
        "Ġtook": 1137,
        "ative": 1138,
        "Ġsw": 1139,
        "Ġseem": 1140,
        "Ġuh": 1141,
        "Ġnext": 1142,
        "Ġwar": 1143,
        "cy": 1144,
        "Ġstop": 1145,
        "Ġbest": 1146,
        "Just": 1147,
        "AN": 1148,
        "Ġboth": 1149,
        "Ġnothing": 1150,
        "ling": 1151,
        "Ġcent": 1152,
        "Ġfar": 1153,
        "Ġeach": 1154,
        "Ġsing": 1155,
        "Ġfun": 1156,
        "ision": 1157,
        "ok": 1158,
        "Ġcle": 1159,
        "Ġdef": 1160,
        "Ġwee": 1161,
        "Can": 1162,
        "orth": 1163,
        "Ġcha": 1164,
        "Ġbre": 1165,
        "Ġpass": 1166,
        "Ġwater": 1167,
        "ger": 1168,
        "stand": 1169,
        "Ġfollow": 1170,
        "ton": 1171,
        "aj": 1172,
        "ged": 1173,
        "vern": 1174,
        "Ġnumber": 1175,
        "rans": 1176,
        "Ġfather": 1177,
        "Ġdoesn": 1178,
        "Ġsaw": 1179,
        "ired": 1180,
        "cept": 1181,
        "its": 1182,
        "ures": 1183,
        "ĠGod": 1184,
        "ope": 1185,
        "ities": 1186,
        "Ġmother": 1187,
        "rib": 1188,
        "Ġlater": 1189,
        "ames": 1190,
        "ohn": 1191,
        "ivers": 1192,
        "Right": 1193,
        "ĠYou": 1194,
        "Ġfamily": 1195,
        "rand": 1196,
        "ms": 1197,
        "Ġlist": 1198,
        "ĠOn": 1199,
        "the": 1200,
        "Ġprodu": 1201,
        "Ġlar": 1202,
        "Ġinc": 1203,
        "Ġteam": 1204,
        "ax": 1205,
        "rew": 1206,
        "cer": 1207,
        "ream": 1208,
        "eak": 1209,
        "Did": 1210,
        "ĠUnited": 1211,
        "ank": 1212,
        "Ġenough": 1213,
        "ross": 1214,
        "osed": 1215,
        "Ġagainst": 1216,
        "Thank": 1217,
        "Ġactually": 1218,
        "iness": 1219,
        "Ġyeah": 1220,
        "Ġelse": 1221,
        "ING": 1222,
        "Ġimp": 1223,
        "ister": 1224,
        "rist": 1225,
        "Good": 1226,
        "Ġsmall": 1227,
        "Ġcap": 1228,
        "ĠEng": 1229,
        "ote": 1230,
        "Ġseen": 1231,
        "Ġhard": 1232,
        "Ġwait": 1233,
        "mber": 1234,
        "Ġdied": 1235,
        "Ġyoung": 1236,
        "Mm": 1237,
        "ctor": 1238,
        "Ġtoget": 1239,
        "Ġhigh": 1240,
        "Ġwithout": 1241,
        "Ġtogether": 1242,
        "Ġproble": 1243,
        "ines": 1244,
        "Ġdep": 1245,
        "less": 1246,
        "une": 1247,
        "ĠSp": 1248,
        "Ġdire": 1249,
        "uth": 1250,
        "ined": 1251,
        "eb": 1252,
        "Ġref": 1253,
        "ĠCom": 1254,
        "iet": 1255,
        "Ġfact": 1256,
        "Ġadd": 1257,
        "Ġpop": 1258,
        "ĠFran": 1259,
        "ung": 1260,
        "Ġrep": 1261,
        "ĠTh": 1262,
        "Ġfew": 1263,
        "Ġplan": 1264,
        "Ġwanted": 1265,
        "Ġbecame": 1266,
        "ific": 1267,
        "Ġfive": 1268,
        "Ġroom": 1269,
        "Uh": 1270,
        "Ġem": 1271,
        "Ġid": 1272,
        "ably": 1273,
        "Ġhear": 1274,
        "Ġyes": 1275,
        "ĠThere": 1276,
        "Ġmind": 1277,
        "Ġrest": 1278,
        "Ġsorry": 1279,
        "ash": 1280,
        "Ġeverything": 1281,
        "ral": 1282,
        "Ġonce": 1283,
        "ĠCl": 1284,
        "Ġpubl": 1285,
        "by": 1286,
        "Ġstr": 1287,
        "Here": 1288,
        "Ġcoming": 1289,
        "When": 1290,
        "Ġ-": 1291,
        "Ġsince": 1292,
        "ric": 1293,
        "ution": 1294,
        "Ġsix": 1295,
        "Ġloc": 1296,
        "Ġbad": 1297,
        "ĠAt": 1298,
        "Ġstand": 1299,
        "att": 1300,
        "Ġunderstand": 1301,
        "Ġlight": 1302,
        "Ġsim": 1303,
        "Ġsign": 1304,
        "amp": 1305,
        "Ġsk": 1306,
        "Ġread": 1307,
        "Ġ--": 1308,
        "ĠInd": 1309,
        "ina": 1310,
        "Ġsays": 1311,
        "Ã©": 1312,
        "Ġstay": 1313,
        "Ġleave": 1314,
        "Ġlive": 1315,
        "Ġmeet": 1316,
        "Ġborn": 1317,
        "Ġcoll": 1318,
        "uss": 1319,
        "ĠJohn": 1320,
        "ield": 1321,
        "Ġcity": 1322,
        "ury": 1323,
        "Ġside": 1324,
        "Ġev": 1325,
        "Ġdisc": 1326,
        "uc": 1327,
        "Ġduring": 1328,
        "Ġtimes": 1329,
        "Ġbelieve": 1330,
        "Ġchildren": 1331,
        "uff": 1332,
        "Ġlooking": 1333,
        "ense": 1334,
        "erest": 1335,
        "Ġheart": 1336,
        "Ġquite": 1337,
        "oon": 1338,
        "Ġimport": 1339,
        "ted": 1340,
        "AT": 1341,
        "Ġpret": 1342,
        "Ġexp": 1343,
        "Ġinter": 1344,
        "Ġhum": 1345,
        "Ġdr": 1346,
        "ball": 1347,
        "Ġquest": 1348,
        "stem": 1349,
        "Ġson": 1350,
        "ned": 1351,
        "Ġisn": 1352,
        "Ġtrans": 1353,
        "Ġsit": 1354,
        "Ġtoday": 1355,
        "ten": 1356,
        "Ġfr": 1357,
        "Ġdays": 1358,
        "ecause": 1359,
        "orning": 1360,
        "Ġconf": 1361,
        "Ġopen": 1362,
        "Ġkid": 1363,
        "Ġlead": 1364,
        "ared": 1365,
        "Ġhappened": 1366,
        "ets": 1367,
        "Ġgener": 1368,
        "ĠZ": 1369,
        "Ġface": 1370,
        "ON": 1371,
        "Ġmove": 1372,
        "ised": 1373,
        "Ġeyes": 1374,
        "anna": 1375,
        "Ġnear": 1376,
        "Ġgrou": 1377,
        "ital": 1378,
        "Ġext": 1379,
        "Ġplease": 1380,
        "Ġthough": 1381,
        "ery": 1382,
        "Ġgetting": 1383,
        "ik": 1384,
        "ey": 1385,
        "ertain": 1386,
        "ries": 1387,
        "Ġart": 1388,
        "Ġnice": 1389,
        "Ġposs": 1390,
        "Ġwhole": 1391,
        "iew": 1392,
        "Ġcol": 1393,
        "aut": 1394,
        "ĠStates": 1395,
        "Ġed": 1396,
        "Ġdra": 1397,
        "Ġmusic": 1398,
        "Ġhour": 1399,
        "Ġ\"âĻª": 1400,
        "Ġsort": 1401,
        "Go": 1402,
        "ither": 1403,
        "ments": 1404,
        "Ġbro": 1405,
        "Ġinterest": 1406,
        "Ġland": 1407,
        "Ġwoman": 1408,
        "ĠPr": 1409,
        "Ġdri": 1410,
        "aby": 1411,
        "Th": 1412,
        "ists": 1413,
        "leep": 1414,
        "dy": 1415,
        "Ġheard": 1416,
        "Ġhimself": 1417,
        "ants": 1418,
        "Ġeas": 1419,
        "br": 1420,
        "Ġbuild": 1421,
        "cted": 1422,
        "Ġyet": 1423,
        "ober": 1424,
        "Ġhalf": 1425,
        "me": 1426,
        "Then": 1427,
        "sel": 1428,
        "aster": 1429,
        "ready": 1430,
        "Ġair": 1431,
        "Ġplayed": 1432,
        "rop": 1433,
        "Ġfoot": 1434,
        "ex": 1435,
        "iam": 1436,
        "Ġjob": 1437,
        "Ġremember": 1438,
        "ĠJan": 1439,
        "ĠIs": 1440,
        "Ġmorning": 1441,
        "ech": 1442,
        "Ġstarted": 1443,
        "Ġfil": 1444,
        "Ġknew": 1445,
        "Your": 1446,
        "Ġmed": 1447,
        "Ġwalk": 1448,
        "ows": 1449,
        "dd": 1450,
        "ene": 1451,
        "Ġhaving": 1452,
        "ize": 1453,
        "Ġtown": 1454,
        "son": 1455,
        "ĠQ": 1456,
        "ues": 1457,
        "Ġasked": 1458,
        "ched": 1459,
        "Get": 1460,
        "Ġrecord": 1461,
        "Ġsystem": 1462,
        "Ġmain": 1463,
        "Ġhold": 1464,
        "ism": 1465,
        "Ġtalking": 1466,
        "Ġmod": 1467,
        "iversity": 1468,
        "reen": 1469,
        "Er": 1470,
        "ized": 1471,
        "Ġcur": 1472,
        "Ġdeath": 1473,
        "Ġalready": 1474,
        "ĠâĢĵ": 1475,
        "AR": 1476,
        "ĠSo": 1477,
        "ives": 1478,
        "For": 1479,
        "ta": 1480,
        "Ġimportant": 1481,
        "Ġpay": 1482,
        "Ġstate": 1483,
        "Ġsir": 1484,
        "Ġsoon": 1485,
        "Ġmil": 1486,
        "Ġupon": 1487,
        "Ġreturn": 1488,
        "Ġalong": 1489,
        "Ġeat": 1490,
        "Ġwrong": 1491,
        "Ġgi": 1492,
        "ison": 1493,
        "Ġans": 1494,
        "Ġsong": 1495,
        "Ġpower": 1496,
        "Ġexam": 1497,
        "app": 1498,
        "nce": 1499,
        "Ġsaying": 1500,
        "Ġidea": 1501,
        "iver": 1502,
        "Ġdoor": 1503,
        "Ġcountry": 1504,
        "ped": 1505,
        "Ġmonth": 1506,
        "Al": 1507,
        "Ġgave": 1508,
        "aid": 1509,
        "May": 1510,
        "Ġmiss": 1511,
        "ole": 1512,
        "Ġbrother": 1513,
        "Ġdead": 1514,
        "Ġri": 1515,
        "ided": 1516,
        "Ġeff": 1517,
        "ĠTHE": 1518,
        "ĠChrist": 1519,
        "most": 1520,
        "velop": 1521,
        "ead": 1522,
        "Ġprom": 1523,
        "Ġprob": 1524,
        "Ġfull": 1525,
        "Ġgovern": 1526,
        "Ġcase": 1527,
        "Sh": 1528,
        "Ġmeans": 1529,
        "Ġty": 1530,
        "Ġwin": 1531,
        "Ġcomple": 1532,
        "Ġhur": 1533,
        "Ġround": 1534,
        "oice": 1535,
        "ering": 1536,
        "ĠCar": 1537,
        "Ġtrying": 1538,
        "Ġinf": 1539,
        "Ġprov": 1540,
        "ev": 1541,
        "Ġgame": 1542,
        "ĠHis": 1543,
        "ility": 1544,
        "ats": 1545,
        "ature": 1546,
        "Ġins": 1547,
        "ages": 1548,
        "med": 1549,
        "Ġsound": 1550,
        "ĠKing": 1551,
        "ĠSc": 1552,
        "ĠMay": 1553,
        "wards": 1554,
        "Ġ`": 1555,
        "aughter": 1556,
        "Ġwife": 1557,
        "cial": 1558,
        "Ġjo": 1559,
        "idd": 1560,
        "ĠBr": 1561,
        "Ġbusiness": 1562,
        "Ġlaw": 1563,
        "Ġgone": 1564,
        "eter": 1565,
        "ically": 1566,
        "Ġexpl": 1567,
        "Ġdel": 1568,
        "ĠGerm": 1569,
        "Ġarea": 1570,
        "Ġmatter": 1571,
        "Ġbegan": 1572,
        "ĠFor": 1573,
        "ony": 1574,
        "OR": 1575,
        "LL": 1576,
        "Because": 1577,
        "ying": 1578,
        "Ġtri": 1579,
        "Ġbring": 1580,
        "Ġfore": 1581,
        "Ġhands": 1582,
        "lish": 1583,
        "cess": 1584,
        "Ġpretty": 1585,
        "Ġwind": 1586,
        "Ġlear": 1587,
        "Ġequ": 1588,
        "ately": 1589,
        "Ġtop": 1590,
        "Ġsent": 1591,
        "ĠWhen": 1592,
        "EN": 1593,
        "ĠBl": 1594,
        "Ġcontin": 1595,
        "Ġstory": 1596,
        "Ġmill": 1597,
        "Ġshall": 1598,
        "Ġcreat": 1599,
        "Ġserv": 1600,
        "ES": 1601,
        "Ġwasn": 1602,
        "Ġcertain": 1603,
        "leased": 1604,
        "eed": 1605,
        "Ġhappen": 1606,
        "enn": 1607,
        "Ġless": 1608,
        "Ġable": 1609,
        "Ġlost": 1610,
        "Ġguy": 1611,
        "ural": 1612,
        "uro": 1613,
        "Ġbeaut": 1614,
        "Ġoffic": 1615,
        "Ġmovie": 1616,
        "orrow": 1617,
        "born": 1618,
        "Ġfuck": 1619,
        "Ġpartic": 1620,
        "Ġpain": 1621,
        "ially": 1622,
        "Ġwond": 1623,
        "Ġpolit": 1624,
        "Ġ_": 1625,
        "Ġspeak": 1626,
        "Ġhist": 1627,
        "ĠâĻª": 1628,
        "TH": 1629,
        "Ġchange": 1630,
        "ured": 1631,
        "Ġpri": 1632,
        "Ġoften": 1633,
        "Ġfell": 1634,
        "amed": 1635,
        "ipp": 1636,
        "cle": 1637,
        "aken": 1638,
        "Ġclass": 1639,
        "Ġmaking": 1640,
        "ring": 1641,
        "ept": 1642,
        "Ġlooked": 1643,
        "ection": 1644,
        "Ġpar": 1645,
        "Ġmoment": 1646,
        "ĠBrit": 1647,
        "Ġproblem": 1648,
        "ica": 1649,
        "Ġfriends": 1650,
        "Ġbaby": 1651,
        "Ġleg": 1652,
        "rict": 1653,
        "gy": 1654,
        "Ġwouldn": 1655,
        "Ġgoes": 1656,
        "ional": 1657,
        "Ġbas": 1658,
        "to": 1659,
        "where": 1660,
        "Ġwatch": 1661,
        "raph": 1662,
        "Ġfight": 1663,
        "eth": 1664,
        "Ġsomeone": 1665,
        "ges": 1666,
        "sh": 1667,
        "Ġwanna": 1668,
        "ush": 1669,
        "undred": 1670,
        "Ġbody": 1671,
        "Ġexper": 1672,
        "Ġdevelop": 1673,
        "ator": 1674,
        "ĠAll": 1675,
        "orld": 1676,
        "Ġprog": 1677,
        "To": 1678,
        "Ġwomen": 1679,
        "ĠPro": 1680,
        "ides": 1681,
        "Ġyourself": 1682,
        "Ġfine": 1683,
        "ĠCon": 1684,
        "Ġpat": 1685,
        "Ġage": 1686,
        "ently": 1687,
        "ract": 1688,
        "ĠCount": 1689,
        "Ġhat": 1690,
        "Ġcomes": 1691,
        "arent": 1692,
        "Ġline": 1693,
        "Ġmark": 1694,
        "erv": 1695,
        "Ġpos": 1696,
        "Ġweek": 1697,
        "Ġvis": 1698,
        "ern": 1699,
        "One": 1700,
        "Ġlarge": 1701,
        "Ġshort": 1702,
        "Ġsleep": 1703,
        "Ġclose": 1704,
        "ello": 1705,
        "Ġguys": 1706,
        "Ġbed": 1707,
        "Ġprobably": 1708,
        "aces": 1709,
        "Ġsn": 1710,
        "Ġdet": 1711,
        "Ġprof": 1712,
        "used": 1713,
        "Ġgroup": 1714,
        "uary": 1715,
        "Ġorgan": 1716,
        "iec": 1717,
        "Ġago": 1718,
        "Ġgiven": 1719,
        "arch": 1720,
        "Ġprot": 1721,
        "Ġterm": 1722,
        "mp": 1723,
        "ron": 1724,
        "Ġes": 1725,
        "ĠGe": 1726,
        "ĠAfter": 1727,
        "Ġworking": 1728,
        "Ġbreak": 1729,
        "rigin": 1730,
        "As": 1731,
        "Ġfire": 1732,
        "Ġtrue": 1733,
        "Ġhundred": 1734,
        "ster": 1735,
        "Ġter": 1736,
        "ĠWe": 1737,
        "ention": 1738,
        "Ġbecome": 1739,
        "ices": 1740,
        "Ġorder": 1741,
        "Ġeight": 1742,
        "Ġhaven": 1743,
        "ump": 1744,
        "Ġcou": 1745,
        "gue": 1746,
        "utes": 1747,
        "enty": 1748,
        "Ġfall": 1749,
        "che": 1750,
        "Ġcut": 1751,
        "eal": 1752,
        "ley": 1753,
        "apan": 1754,
        "ai": 1755,
        "ef": 1756,
        "rought": 1757,
        "Please": 1758,
        "Ġearly": 1759,
        "Ġsol": 1760,
        "bum": 1761,
        "Ġdeal": 1762,
        "ety": 1763,
        "ĠHow": 1764,
        "Ġrece": 1765,
        "Ġpick": 1766,
        "Ġcor": 1767,
        "Ġalmost": 1768,
        "wer": 1769,
        "Ġstre": 1770,
        "Ġpur": 1771,
        "Ġhope": 1772,
        "Ġocc": 1773,
        "urch": 1774,
        "elt": 1775,
        "ĠUniversity": 1776,
        "ĠAp": 1777,
        "Ġaw": 1778,
        "Ġaff": 1779,
        "Ġdiv": 1780,
        "ĠMan": 1781,
        "els": 1782,
        "Ġquestion": 1783,
        "Ġbegin": 1784,
        "hind": 1785,
        "Ġleast": 1786,
        "ilt": 1787,
        "aper": 1788,
        "ĠPar": 1789,
        "ajor": 1790,
        "ches": 1791,
        "Ġadv": 1792,
        "Ġblack": 1793,
        "Ġten": 1794,
        "Ġwhite": 1795,
        "yl": 1796,
        "Ġmyself": 1797,
        "but": 1798,
        "oor": 1799,
        "ĠWorld": 1800,
        "ĠPh": 1801,
        "Ġconst": 1802,
        "ĠJu": 1803,
        "ians": 1804,
        "Ġpublic": 1805,
        "ulation": 1806,
        "Ġoper": 1807,
        "ox": 1808,
        "ining": 1809,
        "Ġcommun": 1810,
        "iful": 1811,
        "rol": 1812,
        "ief": 1813,
        "ĠYork": 1814,
        "ĠWh": 1815,
        "rest": 1816,
        "ril": 1817,
        "Ġsqu": 1818,
        "Ġopp": 1819,
        "ĠSh": 1820,
        "Ġran": 1821,
        "ĠJapan": 1822,
        "Ġhor": 1823,
        "Ġvar": 1824,
        "Ah": 1825,
        "Ġready": 1826,
        "Ġmarried": 1827,
        "oke": 1828,
        "ived": 1829,
        "Ġlate": 1830,
        "not": 1831,
        "Ġpresent": 1832,
        "hamp": 1833,
        "raz": 1834,
        "Ġreason": 1835,
        "ye": 1836,
        "ĠWar": 1837,
        "Ġfree": 1838,
        "Ġmaybe": 1839,
        "ĠCan": 1840,
        "ium": 1841,
        "Ġalone": 1842,
        "Ġswe": 1843,
        "pr": 1844,
        "Ġest": 1845,
        "Ġgovernment": 1846,
        "rent": 1847,
        "Ġdad": 1848,
        "alth": 1849,
        "ugust": 1850,
        "ma": 1851,
        "angu": 1852,
        "Ġcompany": 1853,
        "Ġred": 1854,
        "Ġca": 1855,
        "Ġguess": 1856,
        "Ġkilled": 1857,
        "osp": 1858,
        "Hello": 1859,
        "Ġbrought": 1860,
        "ĠJanuary": 1861,
        "Ġsat": 1862,
        "Ġblood": 1863,
        "umb": 1864,
        "Ġ|": 1865,
        "Maybe": 1866,
        "Ġbehind": 1867,
        "Ġcouldn": 1868,
        "ccess": 1869,
        "Ġsever": 1870,
        "Ġwords": 1871,
        "Ġtele": 1872,
        "Ġorigin": 1873,
        "Ġoh": 1874,
        "ese": 1875,
        "Ġhappy": 1876,
        "Every": 1877,
        "ĠAust": 1878,
        "of": 1879,
        "On": 1880,
        "Ġalbum": 1881,
        "ality": 1882,
        "Ġhon": 1883,
        "Ġreleased": 1884,
        "oe": 1885,
        "ĠEnglish": 1886,
        "ards": 1887,
        "ĠBe": 1888,
        "ert": 1889,
        "Ġtre": 1890,
        "selves": 1891,
        "vious": 1892,
        "Ġdrink": 1893,
        "Ġwrit": 1894,
        "ully": 1895,
        "Ġclear": 1896,
        "Ġgrow": 1897,
        "Ġtaken": 1898,
        "Ġbar": 1899,
        "Ġmakes": 1900,
        "Ġexc": 1901,
        "ains": 1902,
        "ney": 1903,
        "Ġhell": 1904,
        "ĠComm": 1905,
        "Ġseveral": 1906,
        "cent": 1907,
        "ology": 1908,
        "ĠEuro": 1909,
        "Ġdem": 1910,
        "ĠMrs": 1911,
        "ĠSouth": 1912,
        "head": 1913,
        "Ġ\"[": 1914,
        "Ġnews": 1915,
        "IS": 1916,
        "Ġfront": 1917,
        "ĠThen": 1918,
        "eng": 1919,
        "Ġseries": 1920,
        "Ġfood": 1921,
        "Ġmag": 1922,
        "Ġhuman": 1923,
        "ĠWill": 1924,
        "ĠAd": 1925,
        "bit": 1926,
        "ĠHar": 1927,
        "ĠMarch": 1928,
        "ient": 1929,
        "See": 1930,
        "haps": 1931,
        "Ġanim": 1932,
        "ĠPl": 1933,
        "hm": 1934,
        "Ġstat": 1935,
        "ones": 1936,
        "Ġdog": 1937,
        "augh": 1938,
        "rench": 1939,
        "bs": 1940,
        "ĠDec": 1941,
        "Ġpast": 1942,
        "Ġval": 1943,
        "Ġtaking": 1944,
        "Ġstrong": 1945,
        "ude": 1946,
        "Ġhot": 1947,
        "Have": 1948,
        "band": 1949,
        "ĠAugust": 1950,
        "men": 1951,
        "con": 1952,
        "Ġann": 1953,
        "Ġsupport": 1954,
        "ĠYOU": 1955,
        "aced": 1956,
        "RE": 1957,
        "ĠMin": 1958,
        "ĠPres": 1959,
        "Ġcharac": 1960,
        "Ġstuff": 1961,
        "ĠMiss": 1962,
        "ĠâĻª\"": 1963,
        "ĠCounty": 1964,
        "Ġpict": 1965,
        "eptember": 1966,
        "Ġeither": 1967,
        "Ġ$": 1968,
        "Ġseason": 1969,
        "Ġband": 1970,
        "ler": 1971,
        "ĠBar": 1972,
        "Ġadm": 1973,
        "Ġresp": 1974,
        "ctober": 1975,
        "Ġeng": 1976,
        "ior": 1977,
        "Ġsold": 1978,
        "ane": 1979,
        "ement": 1980,
        "Ġrather": 1981,
        "Re": 1982,
        "Ġball": 1983,
        "Ġfig": 1984,
        "ĠCol": 1985,
        "An": 1986,
        "Ġdaughter": 1987,
        "unt": 1988,
        "ĠBritish": 1989,
        "Ġ]": 1990,
        "Ġpiec": 1991,
        "co": 1992,
        "Ġattack": 1993,
        "Ġap": 1994,
        "ĠChar": 1995,
        "Ġthinking": 1996,
        "Ġexample": 1997,
        "Ġallow": 1998,
        "Ġstra": 1999,
        "Ġquick": 2000,
        "aim": 2001,
        "ots": 2002,
        "ĠJune": 2003,
        "Ġminutes": 2004,
        "Ġmillion": 2005,
        "Ġothers": 2006,
        "ider": 2007,
        "Or": 2008,
        "Ġwithin": 2009,
        "cha": 2010,
        "Ex": 2011,
        "Ġroad": 2012,
        "Ġinform": 2013,
        "Ġtou": 2014,
        "Ġtem": 2015,
        "Ġreport": 2016,
        "cient": 2017,
        "Ġsuccess": 2018,
        "Ġlooks": 2019,
        "Ġprogram": 2020,
        "Ġparty": 2021,
        "oint": 2022,
        "ĠEurope": 2023,
        "Ġheld": 2024,
        "Ġbeautiful": 2025,
        "ience": 2026,
        "com": 2027,
        "hern": 2028,
        "Ġdou": 2029,
        "Ġlisten": 2030,
        "âĢĶ": 2031,
        "Ġtrou": 2032,
        "Ġliving": 2033,
        "atic": 2034,
        "ĠHer": 2035,
        "Ġdesign": 2036,
        "let": 2037,
        "Ġnec": 2038,
        "Ġstru": 2039,
        "ming": 2040,
        "ze": 2041,
        "Mr": 2042,
        "Ġresult": 2043,
        "iving": 2044,
        "Ġnamed": 2045,
        "ĠSeptember": 2046,
        "Ġnational": 2047,
        "ĠNational": 2048,
        "ency": 2049,
        "Ġperform": 2050,
        "Ġ.": 2051,
        "artment": 2052,
        "Ġwants": 2053,
        "Ġbra": 2054,
        "fe": 2055,
        "Ġspecial": 2056,
        "Ġminute": 2057,
        "itting": 2058,
        "ĠX": 2059,
        "ĠOctober": 2060,
        "Ġinside": 2061,
        "itten": 2062,
        "Ġlangu": 2063,
        "Ġturned": 2064,
        "ained": 2065,
        "ories": 2066,
        "Ġrepl": 2067,
        "ele": 2068,
        "ored": 2069,
        "ode": 2070,
        "ĠNorth": 2071,
        "ĠApril": 2072,
        "Ġsum": 2073,
        "pped": 2074,
        "actly": 2075,
        "wo": 2076,
        "Ġsil": 2077,
        "Ġmember": 2078,
        "Ġwonder": 2079,
        "ĠJuly": 2080,
        "ald": 2081,
        "ege": 2082,
        "Ġve": 2083,
        "Some": 2084,
        "Ġmess": 2085,
        "Ġappear": 2086,
        "een": 2087,
        "ousand": 2088,
        "oman": 2089,
        "Ġsingle": 2090,
        "Ġformer": 2091,
        "Ġrock": 2092,
        "aul": 2093,
        "fully": 2094,
        "Ġstar": 2095,
        "oad": 2096,
        "range": 2097,
        "Ġdear": 2098,
        "Ġking": 2099,
        "Ġelect": 2100,
        "Ġexpect": 2101,
        "ĠSw": 2102,
        "Ġincluding": 2103,
        "ĠFl": 2104,
        "At": 2105,
        "Ġtest": 2106,
        "resent": 2107,
        "--\"": 2108,
        "AS": 2109,
        "par": 2110,
        "Ġthank": 2111,
        "Ġsun": 2112,
        "Ġdream": 2113,
        "ĠNo": 2114,
        "Ġship": 2115,
        "Ġfelt": 2116,
        "Any": 2117,
        "Ġcommon": 2118,
        "Ġdie": 2119,
        "Ġvoice": 2120,
        "Ġvill": 2121,
        "unch": 2122,
        "Ġfilm": 2123,
        "ĠNove": 2124,
        "usband": 2125,
        "ĠFrench": 2126,
        "Ġlived": 2127,
        "ruary": 2128,
        "ĠDecember": 2129,
        "ebruary": 2130,
        "Ġrev": 2131,
        "ued": 2132,
        "Ġacross": 2133,
        "ales": 2134,
        "key": 2135,
        "Ġplaying": 2136,
        "Ġthird": 2137,
        "fect": 2138,
        "Ġdark": 2139,
        "ape": 2140,
        "Ġoutside": 2141,
        "Ġmonths": 2142,
        "Ġsometimes": 2143,
        "Ġpossible": 2144,
        "Ġhit": 2145,
        "Ġusing": 2146,
        "ĠCha": 2147,
        "Ġamong": 2148,
        "ĠNovember": 2149,
        "Ġmemb": 2150,
        "idge": 2151,
        "Ġhours": 2152,
        "Ġeffect": 2153,
        "Ġgra": 2154,
        "Ġfootball": 2155,
        "II": 2156,
        "Ġthousand": 2157,
        "echn": 2158,
        "que": 2159,
        "fort": 2160,
        "ograph": 2161,
        "Ġworked": 2162,
        "ternational": 2163,
        "ended": 2164,
        "over": 2165,
        "Ġrequ": 2166,
        "Ġcheck": 2167,
        "Ġdest": 2168,
        "Ġz": 2169,
        "Hi": 2170,
        "ĠEd": 2171,
        "ĠIf": 2172,
        "Be": 2173,
        "Ġhair": 2174,
        "Ġill": 2175,
        "aur": 2176,
        "Ġ\"'": 2177,
        "Ġfre": 2178,
        "ĠOne": 2179,
        "Ġfif": 2180,
        "ached": 2181,
        "cil": 2182,
        "ĠAb": 2183,
        "Ġfollowing": 2184,
        "ĠDe": 2185,
        "Ġgun": 2186,
        "vision": 2187,
        "iddle": 2188,
        "ĠLe": 2189,
        "you": 2190,
        "Ġcop": 2191,
        "Ġhusband": 2192,
        "Ġmajor": 2193,
        "Ġpoor": 2194,
        "Ġcareer": 2195,
        "Ġforg": 2196,
        "Ġclub": 2197,
        "Ġappro": 2198,
        "Ġprofess": 2199,
        "Wait": 2200,
        "Of": 2201,
        "overed": 2202,
        "Ġ\"(": 2203,
        "ĠTO": 2204,
        "Ġdam": 2205,
        "read": 2206,
        "unk": 2207,
        "though": 2208,
        "Ġcir": 2209,
        "Ġtried": 2210,
        "ĠCal": 2211,
        "ĠGeor": 2212,
        "Ġground": 2213,
        "ĠGo": 2214,
        "Ġwish": 2215,
        "ata": 2216,
        "ĠFebruary": 2217,
        "Ġaf": 2218,
        "Ġfeet": 2219,
        "Ġtot": 2220,
        "irth": 2221,
        "Ġhistory": 2222,
        "Ġsend": 2223,
        "oul": 2224,
        "eared": 2225,
        "Ġparticular": 2226,
        "ĠEl": 2227,
        "Ġmoved": 2228,
        "ĠAf": 2229,
        "ĠThat": 2230,
        "cing": 2231,
        "Ġtom": 2232,
        "Ġlevel": 2233,
        "----": 2234,
        "ama": 2235,
        "sc": 2236,
        "Ġbuilt": 2237,
        "oved": 2238,
        "Ġseven": 2239,
        "itch": 2240,
        "Take": 2241,
        "Ġgrand": 2242,
        "Erm": 2243,
        "Ġbox": 2244,
        "Ġpolice": 2245,
        "Ġproper": 2246,
        "ĠCity": 2247,
        "Ġgotta": 2248,
        "airs": 2249,
        "Ġcamp": 2250,
        "Ġbuilding": 2251,
        "Ġnorth": 2252,
        "uthor": 2253,
        "Ġmembers": 2254,
        "ĠOr": 2255,
        "Ġfa": 2256,
        "attle": 2257,
        "Ġusually": 2258,
        "Ġcre": 2259,
        "Ġtill": 2260,
        "gest": 2261,
        "With": 2262,
        "ressed": 2263,
        "Ġlay": 2264,
        "Ġav": 2265,
        "rog": 2266,
        "huh": 2267,
        "Ġgets": 2268,
        "Ġcompet": 2269,
        "Ġparent": 2270,
        "ination": 2271,
        "pec": 2272,
        "Ġcost": 2273,
        "Ġoffice": 2274,
        "bo": 2275,
        "Ġtreat": 2276,
        "ĠRep": 2277,
        "Ġcond": 2278,
        "Ġmur": 2279,
        "Ġgold": 2280,
        "Ġcomplete": 2281,
        "Ġconcer": 2282,
        "Ġabs": 2283,
        "ging": 2284,
        "Ġtable": 2285,
        "Ġchance": 2286,
        "ĠFrance": 2287,
        "Ġanswer": 2288,
        "yn": 2289,
        "Ġpull": 2290,
        "come": 2291,
        "Ġworry": 2292,
        "Ġfield": 2293,
        "Ġwhether": 2294,
        "Ġanyone": 2295,
        "onight": 2296,
        "ĠGu": 2297,
        "ified": 2298,
        "hile": 2299,
        "rodu": 2300,
        "Ġcontrol": 2301,
        "ĠPresident": 2302,
        "Ġord": 2303,
        "raid": 2304,
        "ien": 2305,
        "Ġteac": 2306,
        "ĠEar": 2307,
        "Thanks": 2308,
        "ĠCent": 2309,
        "Ġworks": 2310,
        "Ġprop": 2311,
        "Ġsweet": 2312,
        "Ġstation": 2313,
        "ondon": 2314,
        "Ġbuy": 2315,
        "Ġknows": 2316,
        "room": 2317,
        "Ġste": 2318,
        "Ġrad": 2319,
        "Like": 2320,
        "Ġtwenty": 2321,
        "Ġcannot": 2322,
        "idence": 2323,
        "Ġdev": 2324,
        "Ġwall": 2325,
        "Ġdesc": 2326,
        "ases": 2327,
        "Ġbased": 2328,
        "ris": 2329,
        "iod": 2330,
        "Ġwritten": 2331,
        "uk": 2332,
        "Ġeasy": 2333,
        "Ġstep": 2334,
        "ray": 2335,
        "ED": 2336,
        "por": 2337,
        "Ġpract": 2338,
        "Ġplayer": 2339,
        "Ġfav": 2340,
        "ĠMic": 2341,
        "ana": 2342,
        "Ġsister": 2343,
        "Ġevent": 2344,
        "Ġlives": 2345,
        "ĠWest": 2346,
        "Ġview": 2347,
        "Ġgeneral": 2348,
        "ĠJack": 2349,
        "Ġseems": 2350,
        "aint": 2351,
        "Ġpopulation": 2352,
        "irty": 2353,
        "Ġlocal": 2354,
        "OM": 2355,
        "Ġseemed": 2356,
        "asure": 2357,
        "itions": 2358,
        "ĠAm": 2359,
        "ration": 2360,
        "ule": 2361,
        "Ġiss": 2362,
        "Ġmot": 2363,
        "Ġcentury": 2364,
        "Ġphone": 2365,
        "iding": 2366,
        "soci": 2367,
        "ding": 2368,
        "Ġdiffic": 2369,
        "Ġcouple": 2370,
        "ĠLondon": 2371,
        "Ġcurrent": 2372,
        "ances": 2373,
        "Ġpost": 2374,
        "Ġmine": 2375,
        "Ġprocess": 2376,
        "Ġlow": 2377,
        "ula": 2378,
        "Ġdeep": 2379,
        "Ġafraid": 2380,
        "Ġfast": 2381,
        "Ġeveryone": 2382,
        "Ġdraw": 2383,
        "sy": 2384,
        "Ġvide": 2385,
        "Ġsense": 2386,
        "Ġones": 2387,
        "oud": 2388,
        "Ġcold": 2389,
        "Ġnat": 2390,
        "Ġwrote": 2391,
        "Ġcal": 2392,
        "Ġbird": 2393,
        "Ġsuff": 2394,
        "illy": 2395,
        "Ġwear": 2396,
        "iron": 2397,
        "OW": 2398,
        "ounds": 2399,
        "Ġfair": 2400,
        "Ġinvol": 2401,
        "Ġcharacter": 2402,
        "Ġexactly": 2403,
        "ino": 2404,
        "ĠDav": 2405,
        "Ġsea": 2406,
        "Ġgirls": 2407,
        "Ġfur": 2408,
        "hampions": 2409,
        "Sorry": 2410,
        "Ġwrite": 2411,
        "Ġincre": 2412,
        "ument": 2413,
        "Ġcry": 2414,
        "Ġdi": 2415,
        "Ġlonger": 2416,
        "Ġboys": 2417,
        "LE": 2418,
        "ift": 2419,
        "ĠEngland": 2420,
        "Ġtomorrow": 2421,
        "ara": 2422,
        "ean": 2423,
        "Tell": 2424,
        "..\"": 2425,
        "ĠLea": 2426,
        "Ġdin": 2427,
        "iter": 2428,
        "dom": 2429,
        "Ch": 2430,
        "ourn": 2431,
        "Ġpaper": 2432,
        "ada": 2433,
        "ĠItal": 2434,
        "work": 2435,
        "urg": 2436,
        "Ġbirth": 2437,
        "ĠPeter": 2438,
        "itive": 2439,
        "Ġdirect": 2440,
        "Ġbott": 2441,
        "ĠDan": 2442,
        "Ġinformation": 2443,
        "ected": 2444,
        "oes": 2445,
        "ission": 2446,
        "ogn": 2447,
        "Ġchanged": 2448,
        "ĠAustral": 2449,
        "IT": 2450,
        "ĠWhat": 2451,
        "anger": 2452,
        "bers": 2453,
        "Ġsex": 2454,
        "OK": 2455,
        "ization": 2456,
        "Ġtruth": 2457,
        "Ġsouth": 2458,
        "Ġhuh": 2459,
        "uri": 2460,
        "Ġwood": 2461,
        "oose": 2462,
        "Ġrunning": 2463,
        "ĠGerman": 2464,
        "ĠTom": 2465,
        "Ġlik": 2466,
        "ording": 2467,
        "Ġkids": 2468,
        "lex": 2469,
        "ills": 2470,
        "Ġsupposed": 2471,
        "Ġservice": 2472,
        "Ġlab": 2473,
        "entle": 2474,
        "Ġsuper": 2475,
        "more": 2476,
        "Ġfail": 2477,
        "Ġeduc": 2478,
        "Ġpress": 2479,
        "ĠPe": 2480,
        "Ġcross": 2481,
        "for": 2482,
        "Ġperiod": 2483,
        "Ġmer": 2484,
        "Ġdro": 2485,
        "Ġcat": 2486,
        "irt": 2487,
        "ask": 2488,
        "ouncil": 2489,
        "Ġtrouble": 2490,
        "ĠSome": 2491,
        "Ġ...": 2492,
        "Ġsomebody": 2493,
        "Ġforget": 2494,
        "uation": 2495,
        "ĠLord": 2496,
        "ĠTr": 2497,
        "Ġshot": 2498,
        "Ġla": 2499,
        "hel": 2500,
        "Ġposition": 2501,
        "Ġauthor": 2502,
        "Ġhurt": 2503,
        "Ġreceived": 2504,
        "ising": 2505,
        "Ġple": 2506,
        "Ġtonight": 2507,
        "Ġhig": 2508,
        "Ġ*": 2509,
        "Ġneeds": 2510,
        "ĠAmerica": 2511,
        "ky": 2512,
        "Ġgen": 2513,
        "Ġthemselves": 2514,
        "Ġfut": 2515,
        "Ġclean": 2516,
        "aged": 2517,
        "Ġrepresent": 2518,
        "Ġtree": 2519,
        "Ġtype": 2520,
        "dden": 2521,
        "ĠHowever": 2522,
        "GH": 2523,
        "Ġblue": 2524,
        "ĠRuss": 2525,
        "urs": 2526,
        "Ġdistrict": 2527,
        "Ġtrad": 2528,
        "ĠThese": 2529,
        "Ġtelevision": 2530,
        "ops": 2531,
        "conom": 2532,
        "Ġsecret": 2533,
        "ĠSchool": 2534,
        "Ġmount": 2535,
        "itary": 2536,
        "Ġlady": 2537,
        "emy": 2538,
        "arr": 2539,
        "Ġentire": 2540,
        "ĠUS": 2541,
        "Ġkept": 2542,
        "Ġarri": 2543,
        "acy": 2544,
        "ford": 2545,
        "Ġtechn": 2546,
        "Ġluck": 2547,
        "ption": 2548,
        "Ġconn": 2549,
        "ospital": 2550,
        "like": 2551,
        "ĠMc": 2552,
        "Ġaccept": 2553,
        "Ġcreated": 2554,
        "ays": 2555,
        "owers": 2556,
        "Ġlanguage": 2557,
        "aff": 2558,
        "avy": 2559,
        "Ġserious": 2560,
        "Ġtouch": 2561,
        "ilar": 2562,
        "Ġtit": 2563,
        "Ġsudden": 2564,
        "inal": 2565,
        "Ġwaiting": 2566,
        "ping": 2567,
        "ĠPol": 2568,
        "ĠTo": 2569,
        "Ġcos": 2570,
        "gel": 2571,
        "ĠEm": 2572,
        "Ġ\"#": 2573,
        "de": 2574,
        "Ġeverybody": 2575,
        "arty": 2576,
        "Ġobject": 2577,
        "Ġwhatever": 2578,
        "Stop": 2579,
        "Ġsugg": 2580,
        "joy": 2581,
        "ror": 2582,
        "Ġsuggest": 2583,
        "Ġvers": 2584,
        "Ġsell": 2585,
        "Mhm": 2586,
        "ken": 2587,
        "Ġsurpr": 2588,
        "off": 2589,
        "eder": 2590,
        "Ġvisit": 2591,
        "Ġabove": 2592,
        "ĠState": 2593,
        "Ġhy": 2594,
        "Ġstraight": 2595,
        "IC": 2596,
        "Ġperhaps": 2597,
        "Ġhowever": 2598,
        "amb": 2599,
        "ae": 2600,
        "ploy": 2601,
        "ĠSha": 2602,
        "oph": 2603,
        "iol": 2604,
        "Ġmist": 2605,
        "Really": 2606,
        "ĠPhil": 2607,
        "Ġcook": 2608,
        "ĠEx": 2609,
        "Ġfucking": 2610,
        "lu": 2611,
        "ivil": 2612,
        "uz": 2613,
        "pes": 2614,
        "Ġgreen": 2615,
        "Ġspecies": 2616,
        "Ġparents": 2617,
        "Ġfly": 2618,
        "Give": 2619,
        "Ġrespect": 2620,
        "Ġpriv": 2621,
        "Ġlim": 2622,
        "Ġpot": 2623,
        "Ġrul": 2624,
        "Ġrese": 2625,
        "Ġitself": 2626,
        "Ġexist": 2627,
        "Ġfuture": 2628,
        "fer": 2629,
        "van": 2630,
        "ician": 2631,
        "Ġvol": 2632,
        "well": 2633,
        "ĠPer": 2634,
        "olution": 2635,
        "Ġherself": 2636,
        "omin": 2637,
        "ression": 2638,
        "Ġbooks": 2639,
        "ager": 2640,
        "ille": 2641,
        "ĠDr": 2642,
        "Ġfeeling": 2643,
        "ĠAN": 2644,
        "ĠBy": 2645,
        "Ġinstead": 2646,
        "Ġpicture": 2647,
        "estern": 2648,
        "Ġstri": 2649,
        "Ġdecided": 2650,
        "hard": 2651,
        "Ġcell": 2652,
        "ĠCap": 2653,
        "Ġcomput": 2654,
        "Ġcrit": 2655,
        "Ġvillage": 2656,
        "Ġcarry": 2657,
        "US": 2658,
        "ending": 2659,
        "Ġimag": 2660,
        "Ġtakes": 2661,
        "teen": 2662,
        "Ġproblems": 2663,
        "Ġperfect": 2664,
        "cience": 2665,
        "Ġport": 2666,
        "Ġain": 2667,
        "tle": 2668,
        "Ġinclude": 2669,
        "Ġled": 2670,
        "ĠWilliam": 2671,
        "Ġmouth": 2672,
        "Ġpiece": 2673,
        "Ġang": 2674,
        "now": 2675,
        "Ġinvest": 2676,
        "rap": 2677,
        "Ġshoot": 2678,
        "Ġfinished": 2679,
        "ĠJo": 2680,
        "Ġchair": 2681,
        "Ġcult": 2682,
        "Ġletter": 2683,
        "roy": 2684,
        "gr": 2685,
        "Ġlearn": 2686,
        "ĠPaul": 2687,
        "Ġprin": 2688,
        "Ġpopular": 2689,
        "stit": 2690,
        "Ġlaugh": 2691,
        "ĠOF": 2692,
        "Would": 2693,
        "Ġdoctor": 2694,
        "bed": 2695,
        "reet": 2696,
        "Hm": 2697,
        "Ġserved": 2698,
        "Ġchurch": 2699,
        "Ġdoll": 2700,
        "ĠHouse": 2701,
        "Ġaren": 2702,
        "lands": 2703,
        "Ġdifficult": 2704,
        "Does": 2705,
        "Ġpen": 2706,
        "Ġfix": 2707,
        "Ġdue": 2708,
        "Ġcirc": 2709,
        "val": 2710,
        "Ġearth": 2711,
        "Ġproject": 2712,
        "Ġworth": 2713,
        "ivid": 2714,
        "ĠRe": 2715,
        "ocr": 2716,
        "ĠWith": 2717,
        "razy": 2718,
        "Ġtrust": 2719,
        "Ġmem": 2720,
        "Ġhappens": 2721,
        "unic": 2722,
        "hael": 2723,
        "ĠColl": 2724,
        "Ġcover": 2725,
        "Ġspace": 2726,
        "isten": 2727,
        "Will": 2728,
        "go": 2729,
        "lic": 2730,
        "Ġactiv": 2731,
        "atter": 2732,
        "pecially": 2733,
        "alt": 2734,
        "Ġvideo": 2735,
        "Ġfinal": 2736,
        "Ġrecogn": 2737,
        "yle": 2738,
        "Ġprison": 2739,
        "Ġlad": 2740,
        "ental": 2741,
        "Ġbear": 2742,
        "Ġesc": 2743,
        "Ġhorse": 2744,
        "Ġslow": 2745,
        "Ġtrack": 2746,
        "bt": 2747,
        "Ġnorm": 2748,
        "ĠLeague": 2749,
        "eneral": 2750,
        "Ġtelling": 2751,
        "Ġgentle": 2752,
        "olute": 2753,
        "Ġhealth": 2754,
        "Ġsoft": 2755,
        "Ġarm": 2756,
        "Ġregion": 2757,
        "Ġspir": 2758,
        "Ġpassed": 2759,
        "ĠSec": 2760,
        "ĠSam": 2761,
        "viously": 2762,
        "Ġthrow": 2763,
        "Ġhang": 2764,
        "AY": 2765,
        "Ġrelations": 2766,
        "ciety": 2767,
        "Ġfear": 2768,
        "Ġanyway": 2769,
        "Ġsafe": 2770,
        "Ġnine": 2771,
        "Ġshit": 2772,
        "Ġsocial": 2773,
        "Ġcorn": 2774,
        "Ġpresident": 2775,
        "Ġweeks": 2776,
        "Ġsus": 2777,
        "Ġdanger": 2778,
        "pha": 2779,
        "ĠSe": 2780,
        "Ġcried": 2781,
        "Ġfigure": 2782,
        "Ġmiddle": 2783,
        "Ġriver": 2784,
        "Ġep": 2785,
        "rill": 2786,
        "rug": 2787,
        "Ġmeant": 2788,
        "Ġjud": 2789,
        "Ġphys": 2790,
        "Ġestab": 2791,
        "omb": 2792,
        ".'": 2793,
        "Ġphot": 2794,
        "ĠPark": 2795,
        "itted": 2796,
        "Ġfurther": 2797,
        "erence": 2798,
        "Ġengine": 2799,
        "Ġmis": 2800,
        "lect": 2801,
        "Ġsave": 2802,
        "Ġenjoy": 2803,
        "ĠDon": 2804,
        "Ġclot": 2805,
        "Ġant": 2806,
        "epend": 2807,
        "Ġcourt": 2808,
        "Ã¡": 2809,
        "ĠMy": 2810,
        "empt": 2811,
        "Ġevening": 2812,
        "Ġhop": 2813,
        "omes": 2814,
        "Ġcast": 2815,
        "Ġmeeting": 2816,
        "Ġexcept": 2817,
        "Ġ?\"": 2818,
        "Ġgames": 2819,
        "Ġvict": 2820,
        "ival": 2821,
        "nel": 2822,
        "Ġtrain": 2823,
        "TER": 2824,
        "Ġahead": 2825,
        "Ġfamous": 2826,
        "ius": 2827,
        "ĠQue": 2828,
        "ĠIndian": 2829,
        "Ġeconom": 2830,
        "Ġ(\"": 2831,
        "Which": 2832,
        "ĠSy": 2833,
        "Ġreturned": 2834,
        "Ġglad": 2835,
        "EA": 2836,
        "Ġself": 2837,
        "Ġfunny": 2838,
        "amer": 2839,
        "Ġopened": 2840,
        "Ġneg": 2841,
        "Nothing": 2842,
        "Ġide": 2843,
        "Ġstood": 2844,
        "ĠGeorge": 2845,
        "Ġdisapp": 2846,
        "ergy": 2847,
        "Ġmach": 2848,
        "roll": 2849,
        "Ġgod": 2850,
        "ĠSm": 2851,
        "Ġaut": 2852,
        "reg": 2853,
        "ashing": 2854,
        "Ġquiet": 2855,
        "ighb": 2856,
        "oly": 2857,
        "ander": 2858,
        "Ġfill": 2859,
        "uel": 2860,
        "riage": 2861,
        "Ġsick": 2862,
        "Ġfish": 2863,
        "These": 2864,
        "ishing": 2865,
        "Ġsubject": 2866,
        "ĠMus": 2867,
        "Ġda": 2868,
        "rible": 2869,
        "Ġum": 2870,
        "iers": 2871,
        "ĠIN": 2872,
        "Ġleaving": 2873,
        "Ġcounty": 2874,
        "Ġgrad": 2875,
        "Ġcrazy": 2876,
        "cher": 2877,
        "Ġbeginning": 2878,
        "mon": 2879,
        "Ġaccount": 2880,
        "ĠSu": 2881,
        "la": 2882,
        "ume": 2883,
        "ĠRed": 2884,
        "ceed": 2885,
        "line": 2886,
        "Ġseat": 2887,
        "Ġbreat": 2888,
        "Ġnin": 2889,
        "Ġnecess": 2890,
        "lin": 2891,
        "Ġcool": 2892,
        "Ġforce": 2893,
        "Ġdinner": 2894,
        "ĠNow": 2895,
        "Ġtru": 2896,
        "Ġrole": 2897,
        "Ġwhom": 2898,
        "Um": 2899,
        "Ġcapital": 2900,
        "Ġcatch": 2901,
        "Sure": 2902,
        "iforn": 2903,
        "ĠMary": 2904,
        "Ġmad": 2905,
        "ĠDo": 2906,
        "wh": 2907,
        "Ġring": 2908,
        "Ġannoun": 2909,
        "Ġpolitical": 2910,
        "Ġmult": 2911,
        "ĠEast": 2912,
        "Ġagre": 2913,
        "Ġfeat": 2914,
        "Ġsimilar": 2915,
        "hem": 2916,
        "Ġhospital": 2917,
        "Ġclaim": 2918,
        "Ġfloor": 2919,
        "Ġburn": 2920,
        "ĠRiver": 2921,
        "Very": 2922,
        "that": 2923,
        "erve": 2924,
        "Ġmass": 2925,
        "ĠHigh": 2926,
        "Ġforward": 2927,
        "cell": 2928,
        "ires": 2929,
        "Un": 2930,
        "VE": 2931,
        "Ġx": 2932,
        "Ġrespons": 2933,
        "\")": 2934,
        "Ġnon": 2935,
        "ifornia": 2936,
        "rel": 2937,
        "Ġsitting": 2938,
        "Ġintrodu": 2939,
        "Ġclos": 2940,
        "Ġreached": 2941,
        "Ġgiving": 2942,
        "Ġrelig": 2943,
        "AC": 2944,
        "Ġeye": 2945,
        "Ġparts": 2946,
        "Ġmention": 2947,
        "Ġviol": 2948,
        "Ġident": 2949,
        "Ġmater": 2950,
        "Put": 2951,
        "medi": 2952,
        "Ġcomb": 2953,
        "Ġinteresting": 2954,
        "ĠGr": 2955,
        "Ġindivid": 2956,
        "Ġcommunity": 2957,
        "Ġshut": 2958,
        "Ġoriginal": 2959,
        "Ġcause": 2960,
        "Listen": 2961,
        "ET": 2962,
        "ĠGl": 2963,
        "field": 2964,
        "rey": 2965,
        "ID": 2966,
        "ĠRoman": 2967,
        "OT": 2968,
        "Ġstick": 2969,
        "ĠDavid": 2970,
        "ples": 2971,
        "Ġquestions": 2972,
        "Ġdrive": 2973,
        "Ġfing": 2974,
        "Ġsepar": 2975,
        "ĠRepubl": 2976,
        "Ġcountries": 2977,
        "uge": 2978,
        "Ġtotal": 2979,
        "Ġstudents": 2980,
        "erry": 2981,
        "AM": 2982,
        "Ġbank": 2983,
        "Ġfem": 2984,
        "ĠCH": 2985,
        "ĠAg": 2986,
        "ĠGovern": 2987,
        "Ġbeat": 2988,
        "king": 2989,
        "Alright": 2990,
        "Ġplaces": 2991,
        "Ġkey": 2992,
        "reme": 2993,
        "ĠSan": 2994,
        "Ġquickly": 2995,
        "Ġbag": 2996,
        "ĠQu": 2997,
        "Ġappeared": 2998,
        "Ġwhose": 2999,
        "Somet": 3000,
        "Ġstage": 3001,
        "Ġproduct": 3002,
        "Ġ#": 3003,
        "Ġtowards": 3004,
        "ĠGermany": 3005,
        "ply": 3006,
        "rid": 3007,
        "Ġmatch": 3008,
        "Ġyours": 3009,
        "ĠJames": 3010,
        "ĠCor": 3011,
        "Ġamount": 3012,
        "Ġobs": 3013,
        "Ġinn": 3014,
        "Ġclim": 3015,
        "itor": 3016,
        "Ġneighb": 3017,
        "ĠLou": 3018,
        "Ġlose": 3019,
        "ĠMed": 3020,
        "Huh": 3021,
        "ĠCalifornia": 3022,
        "Ġstore": 3023,
        "hips": 3024,
        "Ġstudy": 3025,
        "Ġhost": 3026,
        "Ġconsider": 3027,
        "Ġbene": 3028,
        "Me": 3029,
        "Ġmarket": 3030,
        "ĠJapanese": 3031,
        "Ġsimple": 3032,
        "ocked": 3033,
        "Ġmid": 3034,
        "ĠDuring": 3035,
        "His": 3036,
        "Ġfollowed": 3037,
        "God": 3038,
        "ĠMart": 3039,
        "Ġhoney": 3040,
        "esus": 3041,
        "Ġwindow": 3042,
        "ellow": 3043,
        "raft": 3044,
        "Ġsuppose": 3045,
        "oming": 3046,
        "Ġkiss": 3047,
        "Ġtravel": 3048,
        "ĠIndia": 3049,
        "Ġpark": 3050,
        "Ġdeg": 3051,
        "Ġalive": 3052,
        "cious": 3053,
        "inite": 3054,
        "mas": 3055,
        "sp": 3056,
        "Ġnatural": 3057,
        "Ġroll": 3058,
        "Ġmoving": 3059,
        "Ġpal": 3060,
        "Ġenergy": 3061,
        "Ġ<": 3062,
        "hood": 3063,
        "Ġpublished": 3064,
        "Ġcaught": 3065,
        "Ġindust": 3066,
        "ĠMon": 3067,
        "time": 3068,
        "inist": 3069,
        "Ġlocated": 3070,
        "Ġpolic": 3071,
        "Ġwide": 3072,
        "ĠHist": 3073,
        "Ġexperience": 3074,
        "unicip": 3075,
        "ĠRic": 3076,
        "Ġcolor": 3077,
        "Ġris": 3078,
        "Ġbill": 3079,
        "ĠLa": 3080,
        "Ġbeha": 3081,
        "upid": 3082,
        "Ġanymore": 3083,
        "olly": 3084,
        "Ġbull": 3085,
        "uted": 3086,
        "Ġcertainly": 3087,
        "ruction": 3088,
        "Ġfamil": 3089,
        "ya": 3090,
        "het": 3091,
        "ĠII": 3092,
        "Ġbelong": 3093,
        "Two": 3094,
        "Ġperm": 3095,
        "arden": 3096,
        "Ġways": 3097,
        "oid": 3098,
        "ĠParty": 3099,
        "inary": 3100,
        "AL": 3101,
        "ades": 3102,
        "Ġneeded": 3103,
        "ĠRober": 3104,
        "Ġmiles": 3105,
        "Ġshar": 3106,
        "uty": 3107,
        "ĠBro": 3108,
        "ĠMad": 3109,
        "oyal": 3110,
        "iled": 3111,
        "nes": 3112,
        "Ġver": 3113,
        "Ġteacher": 3114,
        "ĠAir": 3115,
        "Ġrace": 3116,
        "rian": 3117,
        "chan": 3118,
        "rican": 3119,
        "Ġsituation": 3120,
        "Ġ\"...": 3121,
        "Ġdress": 3122,
        "Ġsad": 3123,
        "Ġlie": 3124,
        "aven": 3125,
        "iny": 3126,
        "orts": 3127,
        "Ġterms": 3128,
        "ÃŃ": 3129,
        "Ġ\"!\"": 3130,
        "rab": 3131,
        "Ġfinally": 3132,
        "wood": 3133,
        "ensive": 3134,
        "Ġ,": 3135,
        "Ġstrange": 3136,
        "Ġstopped": 3137,
        "Ġfac": 3138,
        "Ġdiscuss": 3139,
        "Ġallowed": 3140,
        "ka": 3141,
        "night": 3142,
        "Ġanybody": 3143,
        "light": 3144,
        "wered": 3145,
        "ĠDem": 3146,
        "ĠBen": 3147,
        "ĠMor": 3148,
        "Ġearl": 3149,
        "Aha": 3150,
        "Dad": 3151,
        "Ġstreet": 3152,
        "Ġalright": 3153,
        "Even": 3154,
        "uses": 3155,
        "Ġ)": 3156,
        "Ġinflu": 3157,
        "Ġprotect": 3158,
        "Ġemploy": 3159,
        "asons": 3160,
        "iment": 3161,
        "no": 3162,
        "Ġvarious": 3163,
        "Ġespecially": 3164,
        "Ġshop": 3165,
        "pper": 3166,
        "itz": 3167,
        "AP": 3168,
        "ĠSer": 3169,
        "ĠJim": 3170,
        "istic": 3171,
        "Ġfool": 3172,
        "Ġequal": 3173,
        "ext": 3174,
        "ears": 3175,
        "Ġquar": 3176,
        "ĠFrom": 3177,
        "ĠGreat": 3178,
        "Ġshows": 3179,
        "Ġmaterial": 3180,
        "irm": 3181,
        "ago": 3182,
        "Ġboard": 3183,
        "Ġconv": 3184,
        "Ġwriting": 3185,
        "Ġbroad": 3186,
        "ĠLu": 3187,
        "Ġemb": 3188,
        "Ġvalue": 3189,
        "Ġanimals": 3190,
        "bert": 3191,
        "Ġpeace": 3192,
        "ĠIT": 3193,
        "Ã¶": 3194,
        "ĠInternational": 3195,
        "inc": 3196,
        "Ġanswered": 3197,
        "omen": 3198,
        "Ġmilitary": 3199,
        "itional": 3200,
        "CH": 3201,
        "Ġisland": 3202,
        "Ġsurv": 3203,
        "Ġmodern": 3204,
        "Ġice": 3205,
        "Ġwild": 3206,
        "Ġrid": 3207,
        "ĠCo": 3208,
        "Ġinvolved": 3209,
        "ship": 3210,
        "Ġdestroy": 3211,
        "urity": 3212,
        "Ġpaid": 3213,
        "inct": 3214,
        "gar": 3215,
        "ĠChurch": 3216,
        "orthern": 3217,
        "Ġspent": 3218,
        "ĠNot": 3219,
        "cuse": 3220,
        "Ġnet": 3221,
        "Ġdance": 3222,
        "ils": 3223,
        "Ġpack": 3224,
        "ĠChampions": 3225,
        ".,": 3226,
        "Ġwat": 3227,
        "Ġplays": 3228,
        "iling": 3229,
        "sych": 3230,
        "Ġalthough": 3231,
        "Ġaction": 3232,
        "Wow": 3233,
        "Ġremain": 3234,
        "ences": 3235,
        "ĠDist": 3236,
        "Ġbought": 3237,
        "Ġattempt": 3238,
        "ĠMa": 3239,
        "resh": 3240,
        "ĠGeneral": 3241,
        "Ġsoul": 3242,
        "ĠMe": 3243,
        "Ġjoined": 3244,
        "Ġdescrib": 3245,
        "Ġdepartment": 3246,
        "ners": 3247,
        "Ġproduced": 3248,
        "isc": 3249,
        "ĠGrand": 3250,
        "Bl": 3251,
        "Ġprofessional": 3252,
        "ki": 3253,
        "Ġtax": 3254,
        "Ġcivil": 3255,
        "ength": 3256,
        "iction": 3257,
        "omm": 3258,
        "ĠSte": 3259,
        "Ġimmedi": 3260,
        "Ġcand": 3261,
        "Ġegg": 3262,
        "Ġfort": 3263,
        "Ġasking": 3264,
        "ns": 3265,
        "ustom": 3266,
        "Ġenc": 3267,
        "ĠCup": 3268,
        "Ġseeing": 3269,
        "Ġconside": 3270,
        "Ġmix": 3271,
        "ortun": 3272,
        "Ġglass": 3273,
        "Ġfavor": 3274,
        "Ġconsidered": 3275,
        "Ġrefer": 3276,
        "ico": 3277,
        "Ġhung": 3278,
        "Ġdate": 3279,
        "Ġdrug": 3280,
        "Ġlargest": 3281,
        "Ġhate": 3282,
        "Ġofficial": 3283,
        "Ġbase": 3284,
        "ĠTV": 3285,
        "olutely": 3286,
        "Our": 3287,
        "ĠOh": 3288,
        "ero": 3289,
        "Ġsummer": 3290,
        "outhern": 3291,
        "ĠPal": 3292,
        "what": 3293,
        "eep": 3294,
        "iced": 3295,
        "Ġstanding": 3296,
        "lt": 3297,
        "udd": 3298,
        "Ġ&": 3299,
        "ĠHen": 3300,
        "face": 3301,
        "hod": 3302,
        "Ġgives": 3303,
        "Ġarms": 3304,
        "Ġdevelopment": 3305,
        "Ġpers": 3306,
        "rie": 3307,
        "Ġcoff": 3308,
        "ocks": 3309,
        "ĠEuropean": 3310,
        "cast": 3311,
        "Ġsomewhere": 3312,
        "Was": 3313,
        "Ġbroke": 3314,
        "Ġgrew": 3315,
        "Ġcompan": 3316,
        "Ġnature": 3317,
        "Ġban": 3318,
        "Ġloved": 3319,
        "ĠAnt": 3320,
        "Ġpurp": 3321,
        "Ġtend": 3322,
        "ffic": 3323,
        "ibility": 3324,
        "Excuse": 3325,
        "ĠBlack": 3326,
        "After": 3327,
        "Ġplant": 3328,
        "Ġsour": 3329,
        "llen": 3330,
        "Ġhous": 3331,
        "Ġpoints": 3332,
        "Ġenv": 3333,
        "ĠSim": 3334,
        "Ġsal": 3335,
        "Ġprim": 3336,
        "Ġcard": 3337,
        "Ġmaster": 3338,
        "Ġnumbers": 3339,
        "Ġtitle": 3340,
        "ĠBel": 3341,
        "ify": 3342,
        "ĠFrank": 3343,
        "Ġdata": 3344,
        "Ġpersonal": 3345,
        "reek": 3346,
        "ĠEn": 3347,
        "rif": 3348,
        "Ġsize": 3349,
        "ography": 3350,
        "Ġgas": 3351,
        "Ġareas": 3352,
        "Ġaud": 3353,
        "ĠMichael": 3354,
        "Ġpolitician": 3355,
        "UT": 3356,
        "ground": 3357,
        "elp": 3358,
        "itude": 3359,
        "hire": 3360,
        "ĠComp": 3361,
        "ett": 3362,
        "Ġstruct": 3363,
        "ĠPat": 3364,
        "Ġarmy": 3365,
        "ĠÂ": 3366,
        "Ġtired": 3367,
        "Ġdig": 3368,
        "ĠSch": 3369,
        "Ġclothes": 3370,
        "Cl": 3371,
        "ensus": 3372,
        "ises": 3373,
        "af": 3374,
        "ancy": 3375,
        "Ġadded": 3376,
        "Ġspirit": 3377,
        "ential": 3378,
        "Ġrob": 3379,
        "icle": 3380,
        "board": 3381,
        "Ġlo": 3382,
        "Ġfund": 3383,
        "Ġfunction": 3384,
        "Ġcommand": 3385,
        "Ġeducation": 3386,
        "Ġsight": 3387,
        "Ġheavy": 3388,
        "FF": 3389,
        "pen": 3390,
        "ique": 3391,
        "Ġincluded": 3392,
        "ators": 3393,
        "Ġimm": 3394,
        "Ġstars": 3395,
        "ĠAc": 3396,
        "ari": 3397,
        "Ġnearly": 3398,
        "Ġcomputer": 3399,
        "Ġindeed": 3400,
        "ament": 3401,
        "Ġbrain": 3402,
        "Ġthr": 3403,
        "Ġcollege": 3404,
        "Ġprivate": 3405,
        "Ġcompletely": 3406,
        "ĠCouncil": 3407,
        "terday": 3408,
        "ĠEarth": 3409,
        "Ġstupid": 3410,
        "Ġsimply": 3411,
        "wise": 3412,
        "ability": 3413,
        "Ġhun": 3414,
        "Ġaver": 3415,
        "asc": 3416,
        "Ġshare": 3417,
        "lymp": 3418,
        "Ġextra": 3419,
        "Ġboat": 3420,
        "Ġdoubt": 3421,
        "Ġtrees": 3422,
        "Ġresearch": 3423,
        "Qu": 3424,
        "Ġsearch": 3425,
        "Ġwest": 3426,
        "Â´": 3427,
        "Ġcontinued": 3428,
        "ĠJust": 3429,
        "Ġscient": 3430,
        "ĠParis": 3431,
        "rect": 3432,
        "how": 3433,
        "tered": 3434,
        "ĠMinister": 3435,
        "oring": 3436,
        "Ġdirected": 3437,
        "EL": 3438,
        "Ġsens": 3439,
        "Ġimpro": 3440,
        "Ġcaused": 3441,
        "action": 3442,
        "Ġdifference": 3443,
        "Ġcontract": 3444,
        "rica": 3445,
        "iber": 3446,
        "Ġevidence": 3447,
        "ĠSen": 3448,
        "Ġmommy": 3449,
        "Ġmodel": 3450,
        "ĠDep": 3451,
        "Ġprep": 3452,
        "Ġsuddenly": 3453,
        "Ġnames": 3454,
        "Ġexplain": 3455,
        "chen": 3456,
        "noon": 3457,
        "Ġtea": 3458,
        "ids": 3459,
        "ether": 3460,
        "Ġpray": 3461,
        "ĠMex": 3462,
        "Mom": 3463,
        "Ġthanks": 3464,
        "Ġshouldn": 3465,
        "ĠAustralia": 3466,
        "Ġrail": 3467,
        "Ġattention": 3468,
        "Ġelection": 3469,
        "ĠIts": 3470,
        "Ġtalked": 3471,
        "house": 3472,
        "Ġcomfort": 3473,
        "Ġavail": 3474,
        "Ġbroken": 3475,
        "olic": 3476,
        "Ġrain": 3477,
        "antic": 3478,
        "ĠOlymp": 3479,
        "Ġhistor": 3480,
        "Ġindepend": 3481,
        "Ġbur": 3482,
        "Ġbow": 3483,
        "uts": 3484,
        "ĠChristian": 3485,
        "Ġappoint": 3486,
        "ĠTur": 3487,
        "ĠAlex": 3488,
        "Ġaward": 3489,
        "ĠBer": 3490,
        "Ġwed": 3491,
        "Ġdaddy": 3492,
        "Ġtour": 3493,
        "Ġwatching": 3494,
        "ails": 3495,
        "ĠPort": 3496,
        "ological": 3497,
        "ena": 3498,
        "Sp": 3499,
        "Ġliter": 3500,
        "Ġtick": 3501,
        "Ġforest": 3502,
        "view": 3503,
        "hall": 3504,
        "Ġassoci": 3505,
        "Ġbattle": 3506,
        "Ġsounds": 3507,
        "ĠDad": 3508,
        "istics": 3509,
        "osing": 3510,
        "chie": 3511,
        "Ġwonderful": 3512,
        "astic": 3513,
        "ĠCour": 3514,
        "Ġgroups": 3515,
        "lie": 3516,
        "Ġnobody": 3517,
        "Ġpromise": 3518,
        "Ġeast": 3519,
        "Ġregular": 3520,
        "ively": 3521,
        "Ġwel": 3522,
        "Ġur": 3523,
        "Ġhelped": 3524,
        "ĠSir": 3525,
        "Ġdecl": 3526,
        "Ġcharge": 3527,
        "Ġfle": 3528,
        "Ġbud": 3529,
        "ĠReg": 3530,
        "Ġradio": 3531,
        "Ġpath": 3532,
        "ĠBo": 3533,
        "ruct": 3534,
        "ston": 3535,
        "ĠNor": 3536,
        "omas": 3537,
        "Ġmarry": 3538,
        "Ġarg": 3539,
        "Ġfoc": 3540,
        "ĠOld": 3541,
        "Ġarrest": 3542,
        "Ġthirty": 3543,
        "Ġestabl": 3544,
        "Ġmeaning": 3545,
        "Ġpercent": 3546,
        "ledge": 3547,
        "Ġwarm": 3548,
        "Ġinj": 3549,
        "ĠUnion": 3550,
        "Ġsand": 3551,
        "nie": 3552,
        "Ġshowed": 3553,
        "ĠMal": 3554,
        "ĠStreet": 3555,
        "ously": 3556,
        "Ġbottom": 3557,
        "kn": 3558,
        "Ġreach": 3559,
        "Ġinterested": 3560,
        "antly": 3561,
        "Ġversion": 3562,
        "ushed": 3563,
        "anc": 3564,
        "ĠPri": 3565,
        "Ġlength": 3566,
        "Ġspend": 3567,
        "useum": 3568,
        "inese": 3569,
        "By": 3570,
        "ĠMil": 3571,
        "Ġfifty": 3572,
        "Ġthreat": 3573,
        "Ġdefe": 3574,
        "ĠHall": 3575,
        "Ġblow": 3576,
        "irgin": 3577,
        "Ġarch": 3578,
        "Ġopportun": 3579,
        "ĠChina": 3580,
        "set": 3581,
        "Ġrich": 3582,
        "OS": 3583,
        "ĠMark": 3584,
        "azing": 3585,
        "ĠCollege": 3586,
        "ites": 3587,
        "Ġdoc": 3588,
        "Ġafternoon": 3589,
        "Ġrights": 3590,
        "Ġfit": 3591,
        "Ġlog": 3592,
        "ĠMany": 3593,
        "Ġnor": 3594,
        "ĠDistrict": 3595,
        "Ġfat": 3596,
        "Ġclosed": 3597,
        "illa": 3598,
        "Ġformed": 3599,
        "Ġannounced": 3600,
        "ashington": 3601,
        "Ġstreng": 3602,
        "Ġfinish": 3603,
        "ij": 3604,
        "icks": 3605,
        "Ġpounds": 3606,
        "bye": 3607,
        "Ġ...\"": 3608,
        "Ġredu": 3609,
        "Ġhappening": 3610,
        "hest": 3611,
        "ittee": 3612,
        "AND": 3613,
        "From": 3614,
        "burg": 3615,
        "Ġweap": 3616,
        "ords": 3617,
        "Ġbri": 3618,
        "Ġet": 3619,
        "ĠRichard": 3620,
        "Ġhigher": 3621,
        "Ġdise": 3622,
        "ests": 3623,
        "omp": 3624,
        "Ġweren": 3625,
        "ĠRobert": 3626,
        "Ġfounded": 3627,
        "Ġden": 3628,
        "iting": 3629,
        "Bye": 3630,
        "Ġbelow": 3631,
        "Ġspeed": 3632,
        "Ġchoice": 3633,
        "usion": 3634,
        "Ab": 3635,
        "lo": 3636,
        "ĠClub": 3637,
        "Ġmarriage": 3638,
        "Ġcalling": 3639,
        "Ġtraining": 3640,
        "cul": 3641,
        "ĠRec": 3642,
        "Ġinit": 3643,
        "Ġfellow": 3644,
        "raw": 3645,
        "ĠWell": 3646,
        "ERE": 3647,
        "Ġtemper": 3648,
        "Ġmethod": 3649,
        "Ġdeterm": 3650,
        "ironment": 3651,
        "Ġcarried": 3652,
        "Ġdirector": 3653,
        "Ġbright": 3654,
        "Ġnormal": 3655,
        "Ġnovel": 3656,
        "Pe": 3657,
        "Ġspoke": 3658,
        "anish": 3659,
        "Per": 3660,
        "ables": 3661,
        "Ġmunicip": 3662,
        "elve": 3663,
        "iar": 3664,
        "Ġmurder": 3665,
        "ria": 3666,
        "ĠJew": 3667,
        "ibly": 3668,
        "iel": 3669,
        "ĠPenn": 3670,
        "Ġactor": 3671,
        "Ġtast": 3672,
        "aker": 3673,
        "Ġstories": 3674,
        "IM": 3675,
        "ĠON": 3676,
        "-\"": 3677,
        "Ġscience": 3678,
        "Ġhall": 3679,
        "Ġdeveloped": 3680,
        "ĠHam": 3681,
        "oted": 3682,
        "ĠHistory": 3683,
        "Ġlower": 3684,
        "Ġstarting": 3685,
        "ses": 3686,
        "Ġregard": 3687,
        "hal": 3688,
        "ilities": 3689,
        "ville": 3690,
        "Ġbirthday": 3691,
        "Ġpsych": 3692,
        "ĠQueen": 3693,
        "play": 3694,
        "Ġwa": 3695,
        "rag": 3696,
        "Ġaccident": 3697,
        "ĠBE": 3698,
        "ript": 3699,
        "ĠCanada": 3700,
        "Ġmanage": 3701,
        "isf": 3702,
        "asion": 3703,
        "ification": 3704,
        "Ġworse": 3705,
        "Ġund": 3706,
        "fl": 3707,
        "Man": 3708,
        "Ġassist": 3709,
        "rage": 3710,
        "Ġended": 3711,
        "Ġlovely": 3712,
        "apers": 3713,
        "Ġsociety": 3714,
        "Ġchanges": 3715,
        "Ġbes": 3716,
        "Could": 3717,
        "arily": 3718,
        "Ġoffer": 3719,
        "Ġlif": 3720,
        "Ġcoffee": 3721,
        "Ġexec": 3722,
        "Ġ!\"": 3723,
        "atives": 3724,
        "Ġsite": 3725,
        "aves": 3726,
        "ĠGreen": 3727,
        "ĠRes": 3728,
        "ĠWashington": 3729,
        "Ġdram": 3730,
        "ĠWH": 3731,
        "Ġdemand": 3732,
        "za": 3733,
        "Ġavailable": 3734,
        "ĠChristmas": 3735,
        "amn": 3736,
        "Ġsnow": 3737,
        "Ġstates": 3738,
        "ĠFin": 3739,
        "Ġleader": 3740,
        "Ġpun": 3741,
        "Ġhuge": 3742,
        "Ġfeed": 3743,
        "ĠTe": 3744,
        "Ġcapt": 3745,
        "ĠRob": 3746,
        "LD": 3747,
        "Ġschools": 3748,
        "Ġdecision": 3749,
        "ĠArmy": 3750,
        "Got": 3751,
        "ĠWhite": 3752,
        "Ġputting": 3753,
        "WH": 3754,
        "Say": 3755,
        "ession": 3756,
        "Ġmachine": 3757,
        "Ġaverage": 3758,
        "Ġlines": 3759,
        "Ġ()": 3760,
        "Ġtext": 3761,
        "bon": 3762,
        "alley": 3763,
        "Ġearlier": 3764,
        "Ooh": 3765,
        "ida": 3766,
        "Ġmovement": 3767,
        "Ġmessage": 3768,
        "ĠAfrica": 3769,
        "Ġcustom": 3770,
        "Those": 3771,
        "Ġspread": 3772,
        "hold": 3773,
        "ĠCaptain": 3774,
        "Ġyesterday": 3775,
        "back": 3776,
        "ĠAND": 3777,
        "Pl": 3778,
        "Ġbusy": 3779,
        "Ġhol": 3780,
        "Ġmor": 3781,
        "aly": 3782,
        "Mar": 3783,
        "year": 3784,
        "str": 3785,
        "Ġrout": 3786,
        "Ar": 3787,
        "osition": 3788,
        "bl": 3789,
        "Ġbi": 3790,
        "sec": 3791,
        "Ġlearned": 3792,
        "ĠMont": 3793,
        "ĠPet": 3794,
        "berg": 3795,
        "sequ": 3796,
        "phone": 3797,
        "Ġepis": 3798,
        "Ġcases": 3799,
        "lor": 3800,
        "Ġoccur": 3801,
        "Ġagree": 3802,
        "ĠCharles": 3803,
        "Ġcondu": 3804,
        "Ġplus": 3805,
        "Ġestablished": 3806,
        "Ġmovies": 3807,
        "ĠLouis": 3808,
        "iest": 3809,
        "Ġmilk": 3810,
        "liam": 3811,
        "Ġsongs": 3812,
        "ĠAnne": 3813,
        "ees": 3814,
        "Ġride": 3815,
        "Ġcreate": 3816,
        "rank": 3817,
        "Ġnose": 3818,
        "Only": 3819,
        "ĠSat": 3820,
        "Ġgarden": 3821,
        "Ġhonest": 3822,
        "order": 3823,
        "Ġcele": 3824,
        "Ġsquare": 3825,
        "Ġpage": 3826,
        "Ġcareful": 3827,
        "Ġhero": 3828,
        "ĠDes": 3829,
        "Ġfaith": 3830,
        "Ġinternational": 3831,
        "Ġleaves": 3832,
        "Ġrelationship": 3833,
        "initely": 3834,
        "urb": 3835,
        "Ġprinci": 3836,
        "Ġsuit": 3837,
        "Ġyellow": 3838,
        "ĠST": 3839,
        "ann": 3840,
        "Rem": 3841,
        "aug": 3842,
        "Ġcompl": 3843,
        "ĠBill": 3844,
        "Ġrule": 3845,
        "Ġaccess": 3846,
        "Ġbath": 3847,
        "Ġcy": 3848,
        "Ġtherefore": 3849,
        "ylvan": 3850,
        "UN": 3851,
        "Ġstyle": 3852,
        "Ġgar": 3853,
        "ala": 3854,
        "olf": 3855,
        "Ġliked": 3856,
        "Ġterrible": 3857,
        "Ġ=": 3858,
        "Ġinvestig": 3859,
        "ĠCr": 3860,
        "Ġcorner": 3861,
        "oom": 3862,
        "Ġdan": 3863,
        "ĠAward": 3864,
        "liament": 3865,
        "Ġpred": 3866,
        "Ġlegs": 3867,
        "Ġbran": 3868,
        "Ġnone": 3869,
        "ummer": 3870,
        "Ġstone": 3871,
        "Ġought": 3872,
        "ĠArt": 3873,
        "Ġjoin": 3874,
        "ĠItalian": 3875,
        "Ġformula": 3876,
        "ĠChe": 3877,
        "Ġneck": 3878,
        "va": 3879,
        "Ġevents": 3880,
        "Ġcenter": 3881,
        "IGH": 3882,
        "Ġtro": 3883,
        "ĠChinese": 3884,
        "AD": 3885,
        "Ġproduction": 3886,
        "mar": 3887,
        "rat": 3888,
        "Sir": 3889,
        "Ġsinger": 3890,
        "ĠPeople": 3891,
        "ĠMag": 3892,
        "acing": 3893,
        "fast": 3894,
        "Ġkit": 3895,
        "ournal": 3896,
        "su": 3897,
        "Ġfault": 3898,
        "can": 3899,
        "ls": 3900,
        "oday": 3901,
        "Ġdistrib": 3902,
        "iation": 3903,
        "Ġcontact": 3904,
        "Ġanimal": 3905,
        "Ġdry": 3906,
        "ĠPrince": 3907,
        "Pro": 3908,
        "ĠKore": 3909,
        "ension": 3910,
        "iot": 3911,
        "Ġimmediately": 3912,
        "Ġsmell": 3913,
        "Ġideas": 3914,
        "ylvania": 3915,
        "Ġcoun": 3916,
        "Ġchem": 3917,
        "Ġnecessary": 3918,
        "Ġscared": 3919,
        "oves": 3920,
        "ĠJul": 3921,
        "Ġbound": 3922,
        "Ġcup": 3923,
        "ita": 3924,
        "Ġir": 3925,
        "iles": 3926,
        "Ġdistance": 3927,
        "Ġcrow": 3928,
        "Ġwit": 3929,
        "Ġeating": 3930,
        "roud": 3931,
        "Ġdrop": 3932,
        "pping": 3933,
        "ĠIsland": 3934,
        "ĠÃ": 3935,
        "Ġfol": 3936,
        "itar": 3937,
        "Ġflowers": 3938,
        "Ġacqu": 3939,
        "Hold": 3940,
        "Ġskin": 3941,
        "onel": 3942,
        "ights": 3943,
        "Ġlikely": 3944,
        "ĠME": 3945,
        "etic": 3946,
        "ication": 3947,
        "ĠRussian": 3948,
        "erc": 3949,
        "ederal": 3950,
        "aign": 3951,
        "ĠNe": 3952,
        "Ġtall": 3953,
        "Ġcred": 3954,
        "Ġraised": 3955,
        "rupt": 3956,
        "ĠMac": 3957,
        "ems": 3958,
        "Ġcow": 3959,
        "Ġbelieved": 3960,
        "ĠMost": 3961,
        "Ġdiscovered": 3962,
        "Ġbell": 3963,
        "Ġchief": 3964,
        "ini": 3965,
        "ĠMount": 3966,
        "Ġfarm": 3967,
        "asing": 3968,
        "yond": 3969,
        "Ġlying": 3970,
        "ossible": 3971,
        "ĠHenry": 3972,
        "ĠMat": 3973,
        "cean": 3974,
        "Ġtheory": 3975,
        "Ġconvers": 3976,
        "Ġpieces": 3977,
        "kes": 3978,
        "Ġut": 3979,
        "Ġolder": 3980,
        "ims": 3981,
        "Ġsigned": 3982,
        "Ġindividual": 3983,
        "sey": 3984,
        "Ġintell": 3985,
        "ols": 3986,
        "uzz": 3987,
        "ams": 3988,
        "sed": 3989,
        "ĠScott": 3990,
        "ĠFirst": 3991,
        "Ġmostly": 3992,
        "Ġwelcome": 3993,
        "ccording": 3994,
        "Ġbenef": 3995,
        "ĠSund": 3996,
        "Ġmm": 3997,
        "Ġsevent": 3998,
        "Ġrepe": 3999,
        "Ġsky": 4000,
        "Fuck": 4001,
        "itation": 4002,
        "icago": 4003,
        "Ġbeyond": 4004,
        "ĠSwed": 4005,
        "ĠFar": 4006,
        "Ġcoast": 4007,
        "otten": 4008,
        "Ġspecific": 4009,
        "imate": 4010,
        "Ġdepend": 4011,
        "Ġarrived": 4012,
        "Ġhey": 4013,
        "Ġfrog": 4014,
        "ux": 4015,
        "sylvania": 4016,
        "oses": 4017,
        "apt": 4018,
        "Ġkick": 4019,
        "Ġcamer": 4020,
        "ĠLaw": 4021,
        "Ġwalked": 4022,
        "Ġcontinue": 4023,
        "Ġservices": 4024,
        "ĠAct": 4025,
        "fess": 4026,
        "Am": 4027,
        "using": 4028,
        "Ġdisp": 4029,
        "Ġstorm": 4030,
        "Ġsuccessful": 4031,
        "Ġjump": 4032,
        "stairs": 4033,
        "Ġscene": 4034,
        "ELL": 4035,
        "istan": 4036,
        "Ġcovered": 4037,
        "Ġofficer": 4038,
        "Ġphil": 4039,
        "Keep": 4040,
        "erved": 4041,
        "asant": 4042,
        "Ġru": 4043,
        "Ġweak": 4044,
        "First": 4045,
        "ker": 4046,
        "Ġmountain": 4047,
        "Never": 4048,
        "ĠSal": 4049,
        "Ġcrime": 4050,
        "ĠCourt": 4051,
        "aries": 4052,
        "Ġcelebr": 4053,
        "Ġfighting": 4054,
        "razil": 4055,
        "Ġattract": 4056,
        "Ġelected": 4057,
        "Ġreplied": 4058,
        "Ġdouble": 4059,
        "Ġess": 4060,
        "Ġimagine": 4061,
        "Ġcab": 4062,
        "ipped": 4063,
        "Ġreve": 4064,
        "ĠBob": 4065,
        "ĠDemocr": 4066,
        "gu": 4067,
        "Ġspot": 4068,
        "ĠOther": 4069,
        "Ġtar": 4070,
        "Ġpractice": 4071,
        "Ġcollect": 4072,
        "Ġtruck": 4073,
        "Ġaged": 4074,
        "Ġreading": 4075,
        "vert": 4076,
        "ĠPennsylvania": 4077,
        "bles": 4078,
        "ĠChan": 4079,
        "ours": 4080,
        "Great": 4081,
        "Ġpurpose": 4082,
        "atory": 4083,
        "ĠTex": 4084,
        "Ġaddress": 4085,
        "known": 4086,
        "Ġmoon": 4087,
        "vey": 4088,
        "hy": 4089,
        "ware": 4090,
        "ĠCong": 4091,
        "hib": 4092,
        "Ġ.\"": 4093,
        "Ġprice": 4094,
        "Ġenvironment": 4095,
        "Ġreview": 4096,
        "ĠOK": 4097,
        "Ġholding": 4098,
        "Ġspeaking": 4099,
        "urt": 4100,
        "ket": 4101,
        "ĠGold": 4102,
        "yer": 4103,
        "utch": 4104,
        "Ġapart": 4105,
        "kin": 4106,
        "Ġble": 4107,
        "ĠPre": 4108,
        "Ġdescribed": 4109,
        "Ġgoal": 4110,
        "Ġtells": 4111,
        "Ġparticip": 4112,
        "ĠWin": 4113,
        "Ġspl": 4114,
        "Ġpan": 4115,
        "ĠBrown": 4116,
        "ĠIS": 4117,
        "ĠSpanish": 4118,
        "Ġpictures": 4119,
        "Ġprint": 4120,
        "gen": 4121,
        "Ġwalking": 4122,
        "Ġemer": 4123,
        "lam": 4124,
        "Che": 4125,
        "ores": 4126,
        "Ġenemy": 4127,
        "ĠKingdom": 4128,
        "ĠKen": 4129,
        "Ġwedding": 4130,
        "iant": 4131,
        "Ġdirection": 4132,
        "Sc": 4133,
        "Gu": 4134,
        "Ġstrength": 4135,
        "ĠSar": 4136,
        "Everything": 4137,
        "Ġslight": 4138,
        "Ġcensus": 4139,
        "uments": 4140,
        "Ġfourth": 4141,
        "Ġsatisf": 4142,
        "Ġrelease": 4143,
        "Ġknowledge": 4144,
        "Ġshown": 4145,
        "Ġfresh": 4146,
        "Ġpositive": 4147,
        "Ġfemale": 4148,
        "Ġsettle": 4149,
        "tt": 4150,
        "Ġtwice": 4151,
        "Ġissue": 4152,
        "ĠOf": 4153,
        "Ġswim": 4154,
        "Ġrules": 4155,
        "Ġangry": 4156,
        "Ġboss": 4157,
        "ateg": 4158,
        "ĠBrazil": 4159,
        "Ġaccording": 4160,
        "lear": 4161,
        "Ġhasn": 4162,
        "Ġrange": 4163,
        "Ġtail": 4164,
        "Ġmic": 4165,
        "Ġadminist": 4166,
        "Ġforces": 4167,
        "ĠDel": 4168,
        "Ġoil": 4169,
        "Ġpig": 4170,
        "ĠVirgin": 4171,
        "Ġsurface": 4172,
        "Lea": 4173,
        "isted": 4174,
        "Ġsoldiers": 4175,
        "itiz": 4176,
        "Ġdesp": 4177,
        "orks": 4178,
        "ients": 4179,
        "ulf": 4180,
        "Ġsle": 4181,
        "edy": 4182,
        "ĠJose": 4183,
        "Ġge": 4184,
        "Ġtrade": 4185,
        "Ġdangerous": 4186,
        "NA": 4187,
        "ora": 4188,
        "Ġeasily": 4189,
        "west": 4190,
        "YOU": 4191,
        "ĠJesus": 4192,
        "Ġreb": 4193,
        "People": 4194,
        "Ġachie": 4195,
        "Ġrate": 4196,
        "ĠFred": 4197,
        "Ġsele": 4198,
        "ĠCath": 4199,
        "ĠRoyal": 4200,
        "aching": 4201,
        "Ġletters": 4202,
        "ĠBet": 4203,
        "ĠEr": 4204,
        "gl": 4205,
        "Ġsac": 4206,
        "ca": 4207,
        "rely": 4208,
        "Ġlots": 4209,
        "ĠDay": 4210,
        "anda": 4211,
        "arling": 4212,
        "rial": 4213,
        "road": 4214,
        "Ġfrequ": 4215,
        "RO": 4216,
        "Ġmemory": 4217,
        "Ġchick": 4218,
        "under": 4219,
        "Ġloss": 4220,
        "Ġrose": 4221,
        "ĠSov": 4222,
        "Ġhide": 4223,
        "Ġproperty": 4224,
        "Ġlink": 4225,
        "atin": 4226,
        "Ġrub": 4227,
        "Ġspe": 4228,
        "HE": 4229,
        "Isn": 4230,
        "Ġyouth": 4231,
        "Ġancient": 4232,
        "ĠAcad": 4233,
        "ĠWil": 4234,
        "ĠTown": 4235,
        "ĠThomas": 4236,
        "Ġcru": 4237,
        "Ġnotice": 4238,
        "Ġcalls": 4239,
        "Ġwhis": 4240,
        "Ġpressure": 4241,
        "ĠChicago": 4242,
        "ĠSoviet": 4243,
        "Ġdebut": 4244,
        "Ġmir": 4245,
        "Ġplaced": 4246,
        "Ġempt": 4247,
        "Ġentered": 4248,
        "Ġnewsp": 4249,
        "Ġrecorded": 4250,
        "ictor": 4251,
        "Ġtwelve": 4252,
        "min": 4253,
        "IR": 4254,
        "Ġhors": 4255,
        "ashion": 4256,
        "ĠMo": 4257,
        "Ġstudent": 4258,
        "isters": 4259,
        "Ġmissing": 4260,
        "cis": 4261,
        "cket": 4262,
        "Ġpet": 4263,
        "izing": 4264,
        "Ġproud": 4265,
        "Ġdollars": 4266,
        "Ġload": 4267,
        "ste": 4268,
        "uf": 4269,
        "Ġextreme": 4270,
        "ĠItaly": 4271,
        "Her": 4272,
        "bing": 4273,
        "BC": 4274,
        "father": 4275,
        "ĠLittle": 4276,
        "Ġdropped": 4277,
        "KE": 4278,
        "Ġchoose": 4279,
        "Dr": 4280,
        "Ã¤": 4281,
        "ĠDiv": 4282,
        "Ġsignific": 4283,
        "Ġspring": 4284,
        "Ġopin": 4285,
        "Ġbridge": 4286,
        "Ġcondition": 4287,
        "Ġthinks": 4288,
        "Ġcars": 4289,
        "Ġhonor": 4290,
        "iring": 4291,
        "Ġteams": 4292,
        "Ġder": 4293,
        "Ġcoach": 4294,
        "Ġanywhere": 4295,
        "oop": 4296,
        "Ġflat": 4297,
        "Ġdegree": 4298,
        "ulations": 4299,
        "isions": 4300,
        "Ġmistake": 4301,
        "Ġintern": 4302,
        "Something": 4303,
        "Ġkitchen": 4304,
        "Ġplayers": 4305,
        "uke": 4306,
        "icate": 4307,
        "ĠTHAT": 4308,
        "Ġcampaign": 4309,
        "Ġweight": 4310,
        "ĠDO": 4311,
        "Ġthroughout": 4312,
        "Ġcaptain": 4313,
        "ĠOl": 4314,
        "Nice": 4315,
        "Ġforgot": 4316,
        "Ġqual": 4317,
        "UR": 4318,
        "Ġbrown": 4319,
        "ĠCarol": 4320,
        "Ġdisease": 4321,
        "rs": 4322,
        "Ġleading": 4323,
        "Ġsecurity": 4324,
        "idden": 4325,
        "ĠSing": 4326,
        "Ġabsolutely": 4327,
        "mit": 4328,
        "Ġpainting": 4329,
        "ĠTexas": 4330,
        "Ġlunch": 4331,
        "eless": 4332,
        "ĠSmith": 4333,
        "ek": 4334,
        "Ġopportunity": 4335,
        "ĠRepublic": 4336,
        "rated": 4337,
        "iana": 4338,
        "Ġtaught": 4339,
        "Ġhouses": 4340,
        "ĠAssoci": 4341,
        "ĠApp": 4342,
        "ĠJoe": 4343,
        "Ġbirds": 4344,
        "orough": 4345,
        "Remember": 4346,
        "ĠSaint": 4347,
        "Ġunless": 4348,
        "oms": 4349,
        "zen": 4350,
        "enth": 4351,
        "Ġpolicy": 4352,
        "Ġbigger": 4353,
        "upp": 4354,
        "Ġincludes": 4355,
        "Ġsurround": 4356,
        "ette": 4357,
        "do": 4358,
        "adian": 4359,
        "ĠSant": 4360,
        "abor": 4361,
        "ENT": 4362,
        "Ġsurprise": 4363,
        "Ġfamilies": 4364,
        "vell": 4365,
        "Ġconstit": 4366,
        "Ġbab": 4367,
        "Ġguard": 4368,
        "ona": 4369,
        "semb": 4370,
        "Three": 4371,
        "Ġwriter": 4372,
        "gypt": 4373,
        "Ġsett": 4374,
        "Ġgradu": 4375,
        "ĠSl": 4376,
        "Ġsystems": 4377,
        "igned": 4378,
        "Ġcorrect": 4379,
        "Ġcentral": 4380,
        "Ġdamn": 4381,
        "itect": 4382,
        "ALL": 4383,
        "Ġcontrib": 4384,
        ")\"": 4385,
        ">>": 4386,
        "Ġrom": 4387,
        "Ġforty": 4388,
        "iety": 4389,
        "den": 4390,
        "Ġremained": 4391,
        "Ġmum": 4392,
        "Ġmagaz": 4393,
        "Ġeventually": 4394,
        "ĠWhile": 4395,
        "utions": 4396,
        "Ġstudied": 4397,
        "Ġmagn": 4398,
        "Ġoccup": 4399,
        "Ġnote": 4400,
        "ĠBay": 4401,
        "Ġblock": 4402,
        "rad": 4403,
        "Ġstaff": 4404,
        "Ġimpossible": 4405,
        "Ġslowly": 4406,
        "aled": 4407,
        "Ġgrowing": 4408,
        "Ġcities": 4409,
        "Ġvan": 4410,
        "Ġrisk": 4411,
        "stitute": 4412,
        "Ġbecomes": 4413,
        "VER": 4414,
        "Ġshoes": 4415,
        "Ġenter": 4416,
        "ipe": 4417,
        "Ġescape": 4418,
        "ĠBur": 4419,
        "ĠLee": 4420,
        "LA": 4421,
        "alled": 4422,
        "Ġprince": 4423,
        "sing": 4424,
        "Ġbeg": 4425,
        "Ġobviously": 4426,
        "Ġsmaller": 4427,
        "Should": 4428,
        "Ġpush": 4429,
        "Ġlaid": 4430,
        "iverse": 4431,
        "Ġmedical": 4432,
        "Ġworried": 4433,
        "ĠMet": 4434,
        "Car": 4435,
        "Ġexcl": 4436,
        "ĠScot": 4437,
        "Ġthou": 4438,
        "Ġdriving": 4439,
        "ĠMartin": 4440,
        "Ġforced": 4441,
        "Ġmurd": 4442,
        "Ġuses": 4443,
        "Ġtrip": 4444,
        "icious": 4445,
        "Ġresults": 4446,
        "Ġmentioned": 4447,
        "Ġthus": 4448,
        "ĠTwo": 4449,
        "Ġhighest": 4450,
        "Ġexpected": 4451,
        "roat": 4452,
        "eff": 4453,
        "Ġshout": 4454,
        "Ġteach": 4455,
        "Ġparticularly": 4456,
        "Ġappre": 4457,
        "Ġsmile": 4458,
        "Ġruns": 4459,
        "ato": 4460,
        "Ġprovide": 4461,
        "ĠJer": 4462,
        "Ġagreed": 4463,
        "Ġopening": 4464,
        "Ġbreath": 4465,
        "Ġnation": 4466,
        "ĠSince": 4467,
        "Ġcancer": 4468,
        "Ġmanager": 4469,
        "Ġcommune": 4470,
        "estival": 4471,
        "Ġgrass": 4472,
        "Ġpicked": 4473,
        "Ġscreen": 4474,
        "ange": 4475,
        "Ġtypes": 4476,
        "Ġstudio": 4477,
        "ĠYour": 4478,
        "Ġheaven": 4479,
        "Ġchallen": 4480,
        "OD": 4481,
        "Ġtoward": 4482,
        "Ġbrothers": 4483,
        "ĠPrin": 4484,
        "ĠCont": 4485,
        "Ġforth": 4486,
        "Ġmultip": 4487,
        "Ġma": 4488,
        "ĠCentral": 4489,
        "_,": 4490,
        "ĠIr": 4491,
        "Ġpleasure": 4492,
        "imin": 4493,
        "Ġkinds": 4494,
        "Ġinterview": 4495,
        "ube": 4496,
        "mm": 4497,
        "ruit": 4498,
        "cause": 4499,
        "ĠRock": 4500,
        "rain": 4501,
        "Ġamazing": 4502,
        "ĠSun": 4503,
        "Ġlucky": 4504,
        "esty": 4505,
        "just": 4506,
        "ĠEgypt": 4507,
        "Ġsaved": 4508,
        "Ġinvent": 4509,
        "Ġ\"*": 4510,
        "Ġcro": 4511,
        "gged": 4512,
        "EC": 4513,
        "ĠFil": 4514,
        "Ġplans": 4515,
        "Ġshad": 4516,
        "iqu": 4517,
        "Ġfirm": 4518,
        "ĠAfrican": 4519,
        "win": 4520,
        "otion": 4521,
        "Ġbread": 4522,
        "Ġartist": 4523,
        ",'": 4524,
        "Ġconcept": 4525,
        "Ġelectric": 4526,
        "Act": 4527,
        "Ġactress": 4528,
        "Ġvote": 4529,
        "Ġsusp": 4530,
        "Ġhill": 4531,
        "icles": 4532,
        "ashed": 4533,
        "gent": 4534,
        "Ġplanet": 4535,
        "Ġwearing": 4536,
        "Ġuniversity": 4537,
        "Ġheat": 4538,
        "Ġremark": 4539,
        "Ġgenerally": 4540,
        "Ġbreakfast": 4541,
        "Ġaddition": 4542,
        "Ġcurrently": 4543,
        "edom": 4544,
        "aches": 4545,
        "Ġlarger": 4546,
        "odes": 4547,
        "oken": 4548,
        "Ġperformance": 4549,
        "Ġhungry": 4550,
        "rael": 4551,
        "bered": 4552,
        "Ġmission": 4553,
        "Ġwinter": 4554,
        "kins": 4555,
        "Ġhole": 4556,
        "Ġleaders": 4557,
        "ota": 4558,
        "Ġmedic": 4559,
        "Ġcompetition": 4560,
        "ulous": 4561,
        "Ġuncle": 4562,
        "Ġpoet": 4563,
        "Ġcode": 4564,
        "tained": 4565,
        "Ġrough": 4566,
        "Ġprevent": 4567,
        "mark": 4568,
        "Ġblind": 4569,
        "Ġplane": 4570,
        "Ġstrugg": 4571,
        "Shut": 4572,
        "Ġweird": 4573,
        "look": 4574,
        "Ġindustry": 4575,
        "host": 4576,
        "ĠFather": 4577,
        "--------": 4578,
        "Ġshape": 4579,
        "asy": 4580,
        "Ġbrief": 4581,
        "istry": 4582,
        "Ġprovince": 4583,
        "Ġhadn": 4584,
        "ĠLet": 4585,
        "Ġdesigned": 4586,
        "yr": 4587,
        "Ġreported": 4588,
        "Ġfinger": 4589,
        "ĠTheir": 4590,
        "Ġminus": 4591,
        "Ġapplic": 4592,
        "gn": 4593,
        "ĠAtl": 4594,
        "ION": 4595,
        "Ġstructure": 4596,
        "Ġcitiz": 4597,
        "Ġweather": 4598,
        "Ġrelated": 4599,
        "Fine": 4600,
        "Ġfright": 4601,
        "osh": 4602,
        "Ġhurry": 4603,
        "Ġwound": 4604,
        "Ġgreatest": 4605,
        "Ġcompanies": 4606,
        "Cos": 4607,
        "rate": 4608,
        "isl": 4609,
        "Ġstarts": 4610,
        "Ġconditions": 4611,
        "roup": 4612,
        "Ġhorses": 4613,
        "vi": 4614,
        "Ġsides": 4615,
        "ĠBell": 4616,
        "mond": 4617,
        "arrow": 4618,
        "Ġ..": 4619,
        "Ġstuck": 4620,
        "Ġphilos": 4621,
        "Ġtransl": 4622,
        "Ġlikes": 4623,
        "icated": 4624,
        "Ġgreater": 4625,
        "Ġfeatures": 4626,
        "Ġsmart": 4627,
        "Whoa": 4628,
        "Ġforeign": 4629,
        "ĠRoad": 4630,
        "Ġlearning": 4631,
        "ĠSuper": 4632,
        "Ġthick": 4633,
        "aked": 4634,
        "ĠGreek": 4635,
        "Ġforms": 4636,
        "ĠAcademy": 4637,
        "Ġfinan": 4638,
        "Ġiron": 4639,
        "ĠHere": 4640,
        "Ġbal": 4641,
        "Ġhotel": 4642,
        "Ġcrowd": 4643,
        "Ġfilled": 4644,
        "Ġspeech": 4645,
        "umber": 4646,
        "ĠVictor": 4647,
        "Ġtape": 4648,
        "ban": 4649,
        "Ġdefinitely": 4650,
        "Ġpowerful": 4651,
        "En": 4652,
        "Ġsilver": 4653,
        "ĠBoy": 4654,
        "Ġperformed": 4655,
        "Ġsch": 4656,
        "astern": 4657,
        "ĠFore": 4658,
        "Ġchap": 4659,
        "Ġaware": 4660,
        "Ġculture": 4661,
        "ĠKar": 4662,
        "Ġpair": 4663,
        "ĠEmp": 4664,
        "Ġcentre": 4665,
        "ighs": 4666,
        "Ġrap": 4667,
        "Ġplants": 4668,
        "ĠProv": 4669,
        "Ġevil": 4670,
        "hand": 4671,
        "cend": 4672,
        "Ġsen": 4673,
        "Ġvac": 4674,
        "Ġcrew": 4675,
        "ST": 4676,
        "Ġduty": 4677,
        "Ġnegative": 4678,
        "Ġinstr": 4679,
        "Ġya": 4680,
        "Ġpatient": 4681,
        "Ġsection": 4682,
        "ĠWood": 4683,
        "Ġretired": 4684,
        "Ġdescri": 4685,
        "ĠNat": 4686,
        "ucky": 4687,
        "Ġorders": 4688,
        "ĠFrancis": 4689,
        "Ġissues": 4690,
        "Ġjudge": 4691,
        "Ġsource": 4692,
        "Ġquarter": 4693,
        "Ġharm": 4694,
        "ĠWestern": 4695,
        "ĠHill": 4696,
        "ishes": 4697,
        "Ġcomplex": 4698,
        "Ġbeauty": 4699,
        "\".\"": 4700,
        "ĠFox": 4701,
        "rick": 4702,
        "Ġlack": 4703,
        "Ġcalm": 4704,
        "ips": 4705,
        "ĠMexico": 4706,
        "Ġsinging": 4707,
        "Ġoffered": 4708,
        "ĠTor": 4709,
        "Ġempty": 4710,
        "ĠJud": 4711,
        "Make": 4712,
        "fessor": 4713,
        "Ġcrack": 4714,
        "ĠCongress": 4715,
        "hered": 4716,
        "Ġheads": 4717,
        "ĠSea": 4718,
        "Ġhandle": 4719,
        "Ġneither": 4720,
        "law": 4721,
        "Ġjour": 4722,
        "Ġ>>": 4723,
        "utive": 4724,
        "Ġturns": 4725,
        "Ġourselves": 4726,
        "Ġmut": 4727,
        "Ġappl": 4728,
        "put": 4729,
        "Ġrank": 4730,
        "Ġreasons": 4731,
        "ĠAccording": 4732,
        "Ġbasket": 4733,
        "ĠAustralian": 4734,
        "Ġwitness": 4735,
        "Ġbless": 4736,
        "Ġteeth": 4737,
        "Ġedge": 4738,
        "Want": 4739,
        "Ġserve": 4740,
        "yan": 4741,
        "uten": 4742,
        "zz": 4743,
        "Ġjoy": 4744,
        "ĠChampionship": 4745,
        "Ġhardly": 4746,
        "ĠWI": 4747,
        "Ġoriginally": 4748,
        "Ġrealize": 4749,
        "Se": 4750,
        "Ġbloody": 4751,
        "Ġincrease": 4752,
        "Ġstandard": 4753,
        "cks": 4754,
        "Ġsteal": 4755,
        "Ġcontain": 4756,
        "Ġbecoming": 4757,
        "ĠDa": 4758,
        "osite": 4759,
        "Ġspell": 4760,
        "ĠSunday": 4761,
        "Ġordered": 4762,
        "Ġmeasure": 4763,
        "ĠFlor": 4764,
        "ola": 4765,
        "Ġopt": 4766,
        "imately": 4767,
        "Ġign": 4768,
        "ĠStud": 4769,
        "Ġsymb": 4770,
        "Ġcharacters": 4771,
        "ĠSecret": 4772,
        "Ġsuspect": 4773,
        "ening": 4774,
        "Ġstran": 4775,
        "stood": 4776,
        "Ġgrown": 4777,
        "Ġdivided": 4778,
        "IGHT": 4779,
        "ĠRev": 4780,
        "Ġmale": 4781,
        "Ġbiggest": 4782,
        "Ġladies": 4783,
        "Ġsake": 4784,
        "ĠDis": 4785,
        "ĠMel": 4786,
        "Ġmissed": 4787,
        "Ġtyp": 4788,
        "Ġseparate": 4789,
        "ĠMother": 4790,
        "Amer": 4791,
        "Ġcere": 4792,
        "OME": 4793,
        "Ġresponsible": 4794,
        "Ha": 4795,
        "Br": 4796,
        "ĠCanadian": 4797,
        "ockey": 4798,
        "Ġbasically": 4799,
        "Ġtight": 4800,
        "arm": 4801,
        "Ġkm": 4802,
        "Ġtarget": 4803,
        "agn": 4804,
        "odies": 4805,
        "Ġtransfer": 4806,
        "clock": 4807,
        "ĠSpain": 4808,
        "Ġchampions": 4809,
        "ĠSand": 4810,
        "aps": 4811,
        "ros": 4812,
        "Ġmechan": 4813,
        "ĠRussia": 4814,
        "Ġcuri": 4815,
        "Ġcommer": 4816,
        "Ġmedia": 4817,
        "urday": 4818,
        "ĠRome": 4819,
        "Ġjournal": 4820,
        "iano": 4821,
        "Ġdelight": 4822,
        "Ġbitch": 4823,
        "ĠLos": 4824,
        "Ġdecide": 4825,
        "ĠConf": 4826,
        "ĠGovernment": 4827,
        "rance": 4828,
        "Ġreplaced": 4829,
        "peror": 4830,
        "Ġdirectly": 4831,
        ";\"": 4832,
        "Ã¨": 4833,
        "Ġdogs": 4834,
        "ĠMaster": 4835,
        "Ġkilling": 4836,
        "ĠAssociation": 4837,
        "oned": 4838,
        "Ġdare": 4839,
        "ĠMill": 4840,
        "ĠDen": 4841,
        "craft": 4842,
        "see": 4843,
        "Ġactive": 4844,
        "Ġeggs": 4845,
        "Ġremind": 4846,
        "fortun": 4847,
        "Ġprevious": 4848,
        "ĠGO": 4849,
        "ĠSa": 4850,
        "Ġphysical": 4851,
        "Ġstatistics": 4852,
        "Ġcritic": 4853,
        "itan": 4854,
        "ĠIre": 4855,
        "Ġadult": 4856,
        "Ġacting": 4857,
        "Ġturning": 4858,
        "ĠDick": 4859,
        "Ġvot": 4860,
        "da": 4861,
        "anced": 4862,
        "Ġnetwork": 4863,
        "ĠTra": 4864,
        "Ġamb": 4865,
        "Ġgentlemen": 4866,
        "Ġpromised": 4867,
        "Ġlegal": 4868,
        "Ġtotally": 4869,
        "Ġterrit": 4870,
        "Ġinfluence": 4871,
        "ĠCast": 4872,
        "Ġwilling": 4873,
        "Ġclearly": 4874,
        "Ġforever": 4875,
        "Tom": 4876,
        "Ġconnect": 4877,
        "Leave": 4878,
        "Ġgay": 4879,
        "Ġinstit": 4880,
        "ĠCatholic": 4881,
        "Ġreligious": 4882,
        "Ġju": 4883,
        "Ġdocument": 4884,
        "Ġox": 4885,
        "Ġcontent": 4886,
        "Ġnorthern": 4887,
        "vere": 4888,
        "Ġfailed": 4889,
        "Ġarchitect": 4890,
        "Ġorganization": 4891,
        "Ġwaste": 4892,
        "Ġwine": 4893,
        "Ġprove": 4894,
        "Ġcouncil": 4895,
        "ĠWal": 4896,
        "ĠMer": 4897,
        "Ġlies": 4898,
        "ĠLady": 4899,
        "Ġunit": 4900,
        "ĠBig": 4901,
        "Ġappreci": 4902,
        "Ġmunicipality": 4903,
        "Ġsaf": 4904,
        "ga": 4905,
        "eck": 4906,
        "Ġdom": 4907,
        "Ġcopy": 4908,
        "Ġseconds": 4909,
        "Ġsuc": 4910,
        "ĠIsrael": 4911,
        "ĠEvery": 4912,
        "umn": 4913,
        "eds": 4914,
        "Ġflight": 4915,
        "Didn": 4916,
        "CK": 4917,
        "aret": 4918,
        "ooth": 4919,
        "Ġnoise": 4920,
        "Ġresour": 4921,
        "ishop": 4922,
        "Ġlaug": 4923,
        "ĠAnge": 4924,
        "Ġmeat": 4925,
        "urry": 4926,
        "About": 4927,
        "Ġtransport": 4928,
        "Ġmotor": 4929,
        "Ġscream": 4930,
        "Ġscar": 4931,
        "Ġlawyer": 4932,
        "ĠRay": 4933,
        "Ġsurprised": 4934,
        "Think": 4935,
        "Ġlibr": 4936,
        "Ġintroduced": 4937,
        "Ġears": 4938,
        "Ġconcerned": 4939,
        "Ġappointed": 4940,
        "Ġsilly": 4941,
        "Ġtaste": 4942,
        "ĠBa": 4943,
        "Help": 4944,
        "Ġimage": 4945,
        "Ġwake": 4946,
        "Ġroof": 4947,
        "Try": 4948,
        "ĠLake": 4949,
        "Ġflying": 4950,
        "hia": 4951,
        "Ġcamera": 4952,
        "Ġpulled": 4953,
        "Ġproduce": 4954,
        "Ġzero": 4955,
        "ĠTim": 4956,
        "Watch": 4957,
        "ado": 4958,
        "rees": 4959,
        "Ġsucceed": 4960,
        "Ġeld": 4961,
        "Ġremem": 4962,
        "ĠAre": 4963,
        "ĠSil": 4964,
        "Ġkeeping": 4965,
        "Ġninet": 4966,
        "Ġopinion": 4967,
        "isher": 4968,
        "Ġcandid": 4969,
        "ĠGre": 4970,
        "Ġdivision": 4971,
        "Ġbother": 4972,
        "ĠGood": 4973,
        "ĠMaj": 4974,
        "ĠVirginia": 4975,
        "Ġonto": 4976,
        "Ġbuildings": 4977,
        "Ġprepared": 4978,
        "Ġtechnology": 4979,
        "Ġlaughed": 4980,
        "ĠBu": 4981,
        "Ġpattern": 4982,
        "Ġindependent": 4983,
        "iger": 4984,
        "Ġlock": 4985,
        "pir": 4986,
        "Ġdestroyed": 4987,
        "vis": 4988,
        "ault": 4989,
        "Ġloud": 4990,
        "iance": 4991,
        "Ok": 4992,
        "ias": 4993,
        "Ġadop": 4994,
        "Tr": 4995,
        "THE": 4996,
        "ĠCompany": 4997,
        "Ġdrunk": 4998,
        "Ġexperien": 4999,
        "Ġepisode": 5000,
        "Actually": 5001,
        "IF": 5002,
        "Ġwet": 5003,
        "Ġasleep": 5004,
        "Nobody": 5005,
        "Ġmeas": 5006,
        "ĠRos": 5007,
        "Yep": 5008,
        "Ġtrick": 5009,
        "Ġlanguages": 5010,
        "Ġeasier": 5011,
        "umped": 5012,
        "Ġdemon": 5013,
        "Ġsouthern": 5014,
        "ĠWomen": 5015,
        "Ġquality": 5016,
        "ima": 5017,
        "ĠCenter": 5018,
        "Ġjourney": 5019,
        "Ġpit": 5020,
        "arently": 5021,
        "war": 5022,
        "Ġrecently": 5023,
        "ĠCat": 5024,
        "oking": 5025,
        "Ġplat": 5026,
        "Ġactual": 5027,
        "Ġsam": 5028,
        "Ġcrying": 5029,
        "Ġpound": 5030,
        "ĠMom": 5031,
        "ĠTrans": 5032,
        "ctions": 5033,
        "Ġpalace": 5034,
        "Ġlistening": 5035,
        "ĠRad": 5036,
        "ĠMur": 5037,
        "bur": 5038,
        "ba": 5039,
        "nces": 5040,
        "Ġlaughing": 5041,
        "bre": 5042,
        "Ġpil": 5043,
        "Ġsports": 5044,
        "Ġteaching": 5045,
        "agon": 5046,
        "Stay": 5047,
        "ĠGovernor": 5048,
        "ĠIll": 5049,
        "ĠServ": 5050,
        "Ġanal": 5051,
        "Perhaps": 5052,
        "Ġcart": 5053,
        "ĠChief": 5054,
        "ili": 5055,
        "ĠStan": 5056,
        "Ġbomb": 5057,
        "with": 5058,
        "ĠYoung": 5059,
        "ĠAng": 5060,
        "More": 5061,
        "ĠArab": 5062,
        "Ġfixed": 5063,
        "Ġcircum": 5064,
        "idents": 5065,
        "Ġgrant": 5066,
        "ĠUK": 5067,
        "Ġodd": 5068,
        "ĠCam": 5069,
        "Ġcloud": 5070,
        "Ġadvant": 5071,
        "Ġwatched": 5072,
        "EE": 5073,
        "pro": 5074,
        "Ġstream": 5075,
        "ĠFoot": 5076,
        "Ġmanner": 5077,
        "aded": 5078,
        "Ġveh": 5079,
        "Ġmaid": 5080,
        "ressive": 5081,
        "Ġleague": 5082,
        "Ġappears": 5083,
        "ushing": 5084,
        "elcome": 5085,
        "Ġmanaged": 5086,
        ".'\"": 5087,
        "ĠCarl": 5088,
        "ĠAngeles": 5089,
        "Ġthrew": 5090,
        "ĠVer": 5091,
        "ani": 5092,
        "Ġpossibly": 5093,
        "lig": 5094,
        "uals": 5095,
        "elly": 5096,
        "ĠFlorida": 5097,
        "Ġpure": 5098,
        "Ġmetal": 5099,
        "ĠJoseph": 5100,
        "ĠGar": 5101,
        "Ġexpression": 5102,
        "Ġworst": 5103,
        "Ġplain": 5104,
        "Ġresist": 5105,
        "....": 5106,
        "ĠBest": 5107,
        "Ġdying": 5108,
        "Ġsteps": 5109,
        "orter": 5110,
        "Ġrecords": 5111,
        "friend": 5112,
        "Ġusual": 5113,
        "Ġast": 5114,
        "ĠAunt": 5115,
        "Ġmagic": 5116,
        "ennis": 5117,
        "Ġsleeping": 5118,
        "ura": 5119,
        "Ġtrial": 5120,
        "Ġfashion": 5121,
        "ĠHaw": 5122,
        "utenant": 5123,
        "nam": 5124,
        "Ġdreams": 5125,
        "Miss": 5126,
        "Ġknock": 5127,
        "Ġmainly": 5128,
        "Ġsem": 5129,
        "ĠDev": 5130,
        "ĠFre": 5131,
        "abeth": 5132,
        "kend": 5133,
        "Ġdrew": 5134,
        "ĠIm": 5135,
        "Ġprovided": 5136,
        "ĠBritain": 5137,
        "Ġswear": 5138,
        "rig": 5139,
        "ĠDutch": 5140,
        "ĠMusic": 5141,
        "ĠKim": 5142,
        "Ġplanning": 5143,
        "ĠHon": 5144,
        "Ġsequ": 5145,
        "ras": 5146,
        "tering": 5147,
        "ropical": 5148,
        "ĠDepartment": 5149,
        "uman": 5150,
        "ĠMajor": 5151,
        "Ġdefend": 5152,
        "Ġshowing": 5153,
        "ĠAnn": 5154,
        "Ġappearance": 5155,
        "bour": 5156,
        "Ġlaws": 5157,
        "Over": 5158,
        "ardon": 5159,
        "atre": 5160,
        "ĠRog": 5161,
        "Ġconversation": 5162,
        "ĠDou": 5163,
        "Ġawful": 5164,
        "Ġbrand": 5165,
        "Ġanx": 5166,
        "RI": 5167,
        "uries": 5168,
        "ĠWhy": 5169,
        "rier": 5170,
        "ĠHel": 5171,
        "oured": 5172,
        "Ġknowing": 5173,
        "ua": 5174,
        "achel": 5175,
        "ĠVal": 5176,
        "Ġscore": 5177,
        "Ġofficers": 5178,
        "ĠFOR": 5179,
        "oles": 5180,
        "aine": 5181,
        "Ġgro": 5182,
        "icide": 5183,
        "Ġcoat": 5184,
        "ĠSus": 5185,
        "ooper": 5186,
        "azz": 5187,
        "Ġoccasion": 5188,
        "Ġdamage": 5189,
        "Ġunc": 5190,
        "onse": 5191,
        "eare": 5192,
        "Ġburied": 5193,
        "Ġ\"Â": 5194,
        "Ġends": 5195,
        "Ġfingers": 5196,
        "Ġtrib": 5197,
        "Ġpartner": 5198,
        "wing": 5199,
        "Ġdeb": 5200,
        "Ġrow": 5201,
        "Ġspoken": 5202,
        "ĠPan": 5203,
        "Ġeverywhere": 5204,
        "ĠEmpire": 5205,
        "Ġmel": 5206,
        "LY": 5207,
        "Ġfeelings": 5208,
        "cellent": 5209,
        "Ġnoticed": 5210,
        "ĠCons": 5211,
        "Ġassum": 5212,
        "Ġalt": 5213,
        "Ġinha": 5214,
        "Ġyounger": 5215,
        "Ġwalls": 5216,
        "Ġrequired": 5217,
        "Ġpocket": 5218,
        "Sit": 5219,
        "ctors": 5220,
        "Cause": 5221,
        "Ġremains": 5222,
        "Ġconstruction": 5223,
        "Ġgir": 5224,
        "ĠPak": 5225,
        "writ": 5226,
        "Ġ#\"": 5227,
        "ym": 5228,
        "Ġstayed": 5229,
        "urance": 5230,
        "Ġneighbor": 5231,
        "oices": 5232,
        "ĠBecause": 5233,
        "ĠSummer": 5234,
        "ĠJane": 5235,
        "book": 5236,
        "Ġfeels": 5237,
        "Ġce": 5238,
        "Ġstudies": 5239,
        "Ġreligion": 5240,
        "Ġgift": 5241,
        "Ġstock": 5242,
        "Ġtong": 5243,
        "Ġnuc": 5244,
        "Ġguns": 5245,
        "Ġstret": 5246,
        "ĠRose": 5247,
        "Ġowned": 5248,
        "ĠGroup": 5249,
        "CE": 5250,
        "resp": 5251,
        "Ġeconomic": 5252,
        "rant": 5253,
        "heart": 5254,
        "gain": 5255,
        "usic": 5256,
        "Ġdrag": 5257,
        "Damn": 5258,
        "WE": 5259,
        "enced": 5260,
        "ANT": 5261,
        "elle": 5262,
        "Ġinteg": 5263,
        "Ġmagazine": 5264,
        "Ġtroops": 5265,
        "ĠDivision": 5266,
        "Ġsmoke": 5267,
        "Ġreality": 5268,
        "ĠAlthough": 5269,
        "ios": 5270,
        "Ġcomplic": 5271,
        "ĠBefore": 5272,
        "ĠCle": 5273,
        "ĠParliament": 5274,
        "Ad": 5275,
        "iously": 5276,
        "Ġsect": 5277,
        "Ġpapers": 5278,
        "Ġprefer": 5279,
        "OH": 5280,
        "ocol": 5281,
        "aura": 5282,
        "Once": 5283,
        "Ġprem": 5284,
        "Ġcous": 5285,
        "ĠCamp": 5286,
        "Anyway": 5287,
        "imum": 5288,
        "ali": 5289,
        "ĠPrime": 5290,
        "Ġautom": 5291,
        "Ġbutter": 5292,
        "Ġintellig": 5293,
        "ĠEdward": 5294,
        "Ġflow": 5295,
        "Ġrequire": 5296,
        "Ġrat": 5297,
        "Ġcollection": 5298,
        "oura": 5299,
        "Ġchamp": 5300,
        "Ġrequest": 5301,
        "Ġdirty": 5302,
        "American": 5303,
        "Ġopposite": 5304,
        "Ġwinning": 5305,
        "lim": 5306,
        "ĠYes": 5307,
        "Ġupset": 5308,
        "Ġlocation": 5309,
        "oma": 5310,
        "Ġreact": 5311,
        "Ġdepart": 5312,
        "aving": 5313,
        "Ġoperation": 5314,
        "iable": 5315,
        "ĠAmericans": 5316,
        "ĠFer": 5317,
        "ĠIreland": 5318,
        "Ġlosing": 5319,
        "ĠTw": 5320,
        "ĠGeorg": 5321,
        "ront": 5322,
        "Ġduck": 5323,
        "Ġthee": 5324,
        "ties": 5325,
        "ĠOs": 5326,
        "Ġloves": 5327,
        "ĠGames": 5328,
        "Ġimprove": 5329,
        "ĠSqu": 5330,
        "ĠRail": 5331,
        "Ġwheel": 5332,
        "Ġscrew": 5333,
        "orial": 5334,
        "Ġren": 5335,
        "Ġrestaur": 5336,
        "Ġgall": 5337,
        "ournament": 5338,
        "lict": 5339,
        "Ġdrama": 5340,
        "Hmm": 5341,
        "lyn": 5342,
        "Ġminor": 5343,
        "Ġfinding": 5344,
        "Ġeffort": 5345,
        "heast": 5346,
        "Ġrelative": 5347,
        "quar": 5348,
        "Ġcompleted": 5349,
        "Ġinnoc": 5350,
        "Ġtreatment": 5351,
        "ĠMax": 5352,
        "Ġthoughts": 5353,
        "John": 5354,
        "Ġexerc": 5355,
        "ja": 5356,
        "sembly": 5357,
        "Ġstruck": 5358,
        "ingu": 5359,
        "Ġbottle": 5360,
        "Call": 5361,
        "ella": 5362,
        "Ġfavour": 5363,
        "pre": 5364,
        "Ġtim": 5365,
        "Ġmusical": 5366,
        "Ġability": 5367,
        "ĠJean": 5368,
        "ĠPrincess": 5369,
        "oving": 5370,
        "Ġunits": 5371,
        "she": 5372,
        "Ġfile": 5373,
        "Ġcake": 5374,
        "Ġexcuse": 5375,
        "ĠOff": 5376,
        "ĠDire": 5377,
        "Since": 5378,
        "cel": 5379,
        "Ġdriver": 5380,
        "Ġcells": 5381,
        "ois": 5382,
        "ĠWind": 5383,
        "Ġtraditional": 5384,
        "ĠScotland": 5385,
        "icked": 5386,
        "Ġraise": 5387,
        "Tw": 5388,
        "ĠKent": 5389,
        "ĠMike": 5390,
        "Ġflag": 5391,
        "Ġmo": 5392,
        "Ġfought": 5393,
        "Ġthousands": 5394,
        "Ġforgotten": 5395,
        "ulty": 5396,
        "Everyone": 5397,
        "Ġhelping": 5398,
        "Ġlights": 5399,
        "Ġgiant": 5400,
        "Ġfavorite": 5401,
        "Ġfan": 5402,
        "ĠProfessor": 5403,
        "Ġpin": 5404,
        "OP": 5405,
        "amm": 5406,
        "Ġfro": 5407,
        "Ġjack": 5408,
        "ĠLife": 5409,
        "Bet": 5410,
        "pa": 5411,
        "Ġadvice": 5412,
        "NOW": 5413,
        "Ġbasis": 5414,
        "Con": 5415,
        "ko": 5416,
        "Ġhumans": 5417,
        "Ġjoke": 5418,
        "Ġmatters": 5419,
        "Ġgate": 5420,
        "Ġstatement": 5421,
        "ominated": 5422,
        "riday": 5423,
        "ansas": 5424,
        "Ġtiny": 5425,
        "Ġaffect": 5426,
        "Turn": 5427,
        "Ġmatches": 5428,
        "Ġflower": 5429,
        "lying": 5430,
        "Whatever": 5431,
        "Ġuseful": 5432,
        "Ġdrugs": 5433,
        "Ġexpress": 5434,
        "ĠPlay": 5435,
        "Someone": 5436,
        "Ġweekend": 5437,
        "Ġships": 5438,
        "Ġmicro": 5439,
        "Ġpresence": 5440,
        "down": 5441,
        "Ġetc": 5442,
        "emic": 5443,
        "asty": 5444,
        "Ġtur": 5445,
        "uit": 5446,
        "Ġsin": 5447,
        "Ġnerv": 5448,
        "Ġflo": 5449,
        "Ġattend": 5450,
        "]\"": 5451,
        "...?\"": 5452,
        "yo": 5453,
        "ĠBas": 5454,
        "Shall": 5455,
        "gle": 5456,
        "ĠLand": 5457,
        "Ġchemical": 5458,
        "Ġaltern": 5459,
        "Äģ": 5460,
        "Ġgentleman": 5461,
        "Ġdeclared": 5462,
        "Ġdu": 5463,
        "Ġthin": 5464,
        "Ġguitar": 5465,
        "Ġwebs": 5466,
        "ĠRepublican": 5467,
        "ĠLatin": 5468,
        "Ġsafety": 5469,
        "arian": 5470,
        "Today": 5471,
        "Ġbast": 5472,
        "ĠHol": 5473,
        "Ġholid": 5474,
        "ache": 5475,
        "aring": 5476,
        "eping": 5477,
        "Ġmotion": 5478,
        "RA": 5479,
        "aval": 5480,
        "Ġfreedom": 5481,
        "Ġthy": 5482,
        "Ġjobs": 5483,
        "Ġfal": 5484,
        "ĠMass": 5485,
        "Ġearn": 5486,
        "ĠSaturday": 5487,
        "Ġtun": 5488,
        "ching": 5489,
        "ira": 5490,
        "Ġsword": 5491,
        "Ġwestern": 5492,
        "Ġbodies": 5493,
        "ila": 5494,
        "Ġbye": 5495,
        "obile": 5496,
        "Ġgolden": 5497,
        "Ġcloser": 5498,
        "ĠDar": 5499,
        "Ġbillion": 5500,
        "Ġreceive": 5501,
        "Ġaccepted": 5502,
        "place": 5503,
        "ano": 5504,
        "Everybody": 5505,
        "Ġentirely": 5506,
        "ĠDemocratic": 5507,
        "Ġye": 5508,
        "Ġeffects": 5509,
        "boy": 5510,
        "ĠDoctor": 5511,
        "ufact": 5512,
        "Ġrise": 5513,
        "apa": 5514,
        "ĠHa": 5515,
        "Ġsilence": 5516,
        "low": 5517,
        "osen": 5518,
        "ĠEven": 5519,
        "Ġnative": 5520,
        "acle": 5521,
        "Ġexchan": 5522,
        "Ġbare": 5523,
        "Ġlect": 5524,
        "Ġbringing": 5525,
        "Le": 5526,
        "Ġninety": 5527,
        "Ġdressed": 5528,
        "Ġgri": 5529,
        "ĠOlympics": 5530,
        "lfriend": 5531,
        "ĠYear": 5532,
        "Ġsail": 5533,
        "Ġtears": 5534,
        "Ġselected": 5535,
        "Ġlips": 5536,
        "Ġawarded": 5537,
        "Ġmort": 5538,
        "add": 5539,
        "onds": 5540,
        "Ġauthority": 5541,
        "thur": 5542,
        "Welcome": 5543,
        "ĠHA": 5544,
        "aimed": 5545,
        "ĠInstitute": 5546,
        "Ġfocus": 5547,
        "New": 5548,
        "ĠLy": 5549,
        "Ġminister": 5550,
        "Ġsplit": 5551,
        "Ġresponse": 5552,
        "Ġtemperature": 5553,
        "ji": 5554,
        "UST": 5555,
        "ĠBilly": 5556,
        "ĠStar": 5557,
        "ophy": 5558,
        "ĠMore": 5559,
        "aning": 5560,
        "enny": 5561,
        "Ġfinancial": 5562,
        "Ġsignal": 5563,
        "Ġhearing": 5564,
        "Ġcredit": 5565,
        "ĠLater": 5566,
        "Ġdesire": 5567,
        "Ġperfectly": 5568,
        "enc": 5569,
        "Ġafford": 5570,
        "ĠEliz": 5571,
        "itzer": 5572,
        "ads": 5573,
        "leg": 5574,
        "ĠCommittee": 5575,
        "Ġcarefully": 5576,
        "eral": 5577,
        "Ġcontains": 5578,
        "Ġexcited": 5579,
        "Ġlabor": 5580,
        "Ġnewspaper": 5581,
        "Ġactivity": 5582,
        "Ġweapons": 5583,
        "imp": 5584,
        "Ġrecent": 5585,
        "Ġgraph": 5586,
        "stitution": 5587,
        "Ġdrawing": 5588,
        "Ġfifteen": 5589,
        "Out": 5590,
        "Ġdetail": 5591,
        "Ġcream": 5592,
        "Ġborder": 5593,
        "Ġcash": 5594,
        "col": 5595,
        "ĠIran": 5596,
        "Ġstreets": 5597,
        "Ġjail": 5598,
        "Ġworkers": 5599,
        "Ġmate": 5600,
        "Ġbroadcast": 5601,
        "Ġdarling": 5602,
        "Ġtal": 5603,
        "Ġfired": 5604,
        "olved": 5605,
        "Ġrecomm": 5606,
        "icient": 5607,
        "stances": 5608,
        "ĠHot": 5609,
        "vest": 5610,
        "Ġmajority": 5611,
        "Ġconnected": 5612,
        "Ġdivor": 5613,
        "rary": 5614,
        "ĠJackson": 5615,
        "Ġprec": 5616,
        "Ġcrim": 5617,
        "Ġfalling": 5618,
        "Ġarrange": 5619,
        "Ġcastle": 5620,
        "Ġlic": 5621,
        "Ġchicken": 5622,
        "ilty": 5623,
        "Ġhyd": 5624,
        "ĠJac": 5625,
        "Ġsignificant": 5626,
        "gor": 5627,
        "Ġapproach": 5628,
        "App": 5629,
        "ĠSociety": 5630,
        "rd": 5631,
        "ysis": 5632,
        "ĠMajesty": 5633,
        "Ġcomment": 5634,
        "iven": 5635,
        "ĠAwards": 5636,
        "Ġgrave": 5637,
        "Sometimes": 5638,
        "Ġmanagement": 5639,
        "ĠSk": 5640,
        "Ġbeside": 5641,
        "ĠSecretary": 5642,
        "Ġboot": 5643,
        "ĠUnder": 5644,
        "Ġunderstood": 5645,
        "hamber": 5646,
        "Ġfruit": 5647,
        "zer": 5648,
        "stra": 5649,
        "uous": 5650,
        "Ġfaster": 5651,
        "they": 5652,
        "ĠEarly": 5653,
        ".]": 5654,
        "ĠLove": 5655,
        "Ġsugar": 5656,
        "opher": 5657,
        ".)": 5658,
        "ĠStep": 5659,
        "ervation": 5660,
        "Ġsolution": 5661,
        "och": 5662,
        "ogether": 5663,
        "ĠHarry": 5664,
        "Ġsettled": 5665,
        "stead": 5666,
        "Ġdrinking": 5667,
        "ĠAh": 5668,
        "ĠAmy": 5669,
        "Up": 5670,
        "ulated": 5671,
        "Ġconcent": 5672,
        "urse": 5673,
        "Ġadvent": 5674,
        "Ġsixty": 5675,
        "ĠEdu": 5676,
        "eer": 5677,
        "Ph": 5678,
        "bled": 5679,
        "Ġ\"..": 5680,
        "Ġnarrow": 5681,
        "Ġsharp": 5682,
        "Ġdiam": 5683,
        "Ġnineteen": 5684,
        "Ġremoved": 5685,
        "Ġpool": 5686,
        "ective": 5687,
        "Ġbeach": 5688,
        "ĠLong": 5689,
        "Looks": 5690,
        "Ġpossess": 5691,
        "Ġfully": 5692,
        "Ġavoid": 5693,
        "gers": 5694,
        "Ġincreased": 5695,
        "venue": 5696,
        "Ġmedicine": 5697,
        "pet": 5698,
        "vention": 5699,
        "Ġotherwise": 5700,
        "Ġgain": 5701,
        "Next": 5702,
        "ĠCorn": 5703,
        "Ġupper": 5704,
        "Ġelement": 5705,
        "mother": 5706,
        "Ġhabit": 5707,
        "',": 5708,
        "load": 5709,
        "Ġrent": 5710,
        "Ġqueen": 5711,
        "foot": 5712,
        "ĠNorthern": 5713,
        "Ġproceed": 5714,
        "Ġsuggested": 5715,
        "Ġfant": 5716,
        "ĠHy": 5717,
        "Ġboo": 5718,
        "Ġrapid": 5719,
        "Ġnumer": 5720,
        "Ġkeeps": 5721,
        "erves": 5722,
        "Ġlake": 5723,
        "Ġaudience": 5724,
        "vin": 5725,
        "inet": 5726,
        "onder": 5727,
        "Shit": 5728,
        "Has": 5729,
        "Hurry": 5730,
        "Open": 5731,
        "ĠPac": 5732,
        "Ġplanned": 5733,
        "Ġmountains": 5734,
        "Ġbranch": 5735,
        "Ġhighly": 5736,
        "Ġterror": 5737,
        "Ġpotential": 5738,
        "Love": 5739,
        "Ġpassing": 5740,
        "Ġfigures": 5741,
        "jo": 5742,
        "Ġchat": 5743,
        "Ġtough": 5744,
        "Ġah": 5745,
        "bury": 5746,
        "Ġdim": 5747,
        "Ġpleased": 5748,
        "ĠMars": 5749,
        "appy": 5750,
        "Ġtor": 5751,
        "isa": 5752,
        "._": 5753,
        "ulate": 5754,
        "Ġcomedy": 5755,
        "Ġlord": 5756,
        "Ġmixed": 5757,
        "ĠMuseum": 5758,
        "Ġkidding": 5759,
        "Ġbasic": 5760,
        "Move": 5761,
        "ĠGirl": 5762,
        "ĠJohnson": 5763,
        "inois": 5764,
        "Ġroy": 5765,
        "Ġprimary": 5766,
        "Ġcomfortable": 5767,
        "Ġsetting": 5768,
        "chant": 5769,
        "Ġscored": 5770,
        "ublic": 5771,
        "Ġapartment": 5772,
        "Ġmap": 5773,
        "elling": 5774,
        "Ġconsum": 5775,
        "Ġconscious": 5776,
        "Ġvictory": 5777,
        "Daddy": 5778,
        "ĠSH": 5779,
        "Another": 5780,
        "don": 5781,
        "Ġsexual": 5782,
        "essel": 5783,
        "Ġprograms": 5784,
        "Ġfederal": 5785,
        "sell": 5786,
        "igan": 5787,
        "wan": 5788,
        "ĠSouthern": 5789,
        "fall": 5790,
        "ĠKe": 5791,
        "Ġfailure": 5792,
        "ĠInter": 5793,
        "Aye": 5794,
        "wers": 5795,
        "owed": 5796,
        "ĠCy": 5797,
        "Ġprior": 5798,
        "Ġgoals": 5799,
        "Ġkingdom": 5800,
        "Ġfaces": 5801,
        "ĠSweden": 5802,
        "ender": 5803,
        "Ġpregn": 5804,
        "Ġlibrary": 5805,
        "OL": 5806,
        "Ġrailway": 5807,
        "orge": 5808,
        "Ġroles": 5809,
        "Ġmanufact": 5810,
        "Ġstatus": 5811,
        "Ġforgive": 5812,
        "ĠPakistan": 5813,
        "Ġrepresented": 5814,
        "Ġarrested": 5815,
        "obal": 5816,
        "Ġwindows": 5817,
        "rison": 5818,
        "ĠOut": 5819,
        "Ġchosen": 5820,
        "Ġpra": 5821,
        "Ġchanging": 5822,
        "Ġfifth": 5823,
        "\").": 5824,
        "Ġstrike": 5825,
        "Ġnervous": 5826,
        "Ġwealth": 5827,
        "ummy": 5828,
        "ĠArch": 5829,
        "Ġelements": 5830,
        "Ġpaying": 5831,
        "ĠWAS": 5832,
        "odd": 5833,
        "ĠColumb": 5834,
        "eman": 5835,
        "Ġapolog": 5836,
        "stant": 5837,
        "Ġinvited": 5838,
        "Ġcircle": 5839,
        "arry": 5840,
        "Ġdancing": 5841,
        "Ġextremely": 5842,
        "ador": 5843,
        "ĠBang": 5844,
        "Ġbelief": 5845,
        "zy": 5846,
        "Ġinstance": 5847,
        "Ġeighty": 5848,
        "hetic": 5849,
        "ĠJewish": 5850,
        "ĠTer": 5851,
        "Ġdefeated": 5852,
        "Ġknife": 5853,
        "aging": 5854,
        "Ġchest": 5855,
        "ĠMAN": 5856,
        "elled": 5857,
        "Ġgrowth": 5858,
        "Ġwid": 5859,
        "Ġunf": 5860,
        "Ġdisplay": 5861,
        "bor": 5862,
        "Ġadvantage": 5863,
        "Ġlatter": 5864,
        "Ġkil": 5865,
        "Ġcontroll": 5866,
        "uckles": 5867,
        "Ġactivities": 5868,
        "Ġmuseum": 5869,
        "ĠBi": 5870,
        "Ġagent": 5871,
        "Sm": 5872,
        "ĠHE": 5873,
        "porary": 5874,
        "Ġsomehow": 5875,
        "Ġprofessor": 5876,
        "ĠFriday": 5877,
        "Ġplenty": 5878,
        "Ġhiding": 5879,
        "Ġschol": 5880,
        "osaur": 5881,
        "ĠJeff": 5882,
        "ĠAsia": 5883,
        "Ġunderstanding": 5884,
        "ĠEs": 5885,
        "ĠCommun": 5886,
        "ĠEll": 5887,
        "ĠLight": 5888,
        "Ġchannel": 5889,
        "Ġtap": 5890,
        "Ġeh": 5891,
        "Ġcarrying": 5892,
        "Ġnotes": 5893,
        "oston": 5894,
        "Ġult": 5895,
        "ĠBre": 5896,
        "gment": 5897,
        "Ġproducer": 5898,
        "Ġpurcha": 5899,
        "Ġrevolution": 5900,
        "adium": 5901,
        "ports": 5902,
        "Ġsoldier": 5903,
        "ĠRod": 5904,
        "Ġconsist": 5905,
        "Ġtongue": 5906,
        "spect": 5907,
        "Ġ(;": 5908,
        "Ġfields": 5909,
        "Ġwash": 5910,
        "Ġcolour": 5911,
        "gency": 5912,
        "Ġdism": 5913,
        "Ġgirlfriend": 5914,
        "ĠWall": 5915,
        "Ġroute": 5916,
        "had": 5917,
        "Ġliber": 5918,
        "ishment": 5919,
        "Ġmax": 5920,
        "Ġupstairs": 5921,
        "hens": 5922,
        "Ġselling": 5923,
        "inger": 5924,
        "ricult": 5925,
        "Ġshell": 5926,
        "ropri": 5927,
        "Ġentertain": 5928,
        "Ġflew": 5929,
        "Ġslightly": 5930,
        "Ġsees": 5931,
        "outs": 5932,
        "ĠSecond": 5933,
        "Ġwha": 5934,
        "Ġsons": 5935,
        "ĠCare": 5936,
        "Ġexpand": 5937,
        "Ġshooting": 5938,
        "Big": 5939,
        "Ġfamiliar": 5940,
        "Ġremembered": 5941,
        "ĠColonel": 5942,
        "Ġcompos": 5943,
        "Ġachieve": 5944,
        "izes": 5945,
        "ĠZeal": 5946,
        "Ġproducts": 5947,
        "Ġpowers": 5948,
        "li": 5949,
        "Ġcalcul": 5950,
        "ĠUncle": 5951,
        "Ġhanging": 5952,
        "Ġtone": 5953,
        "Ġbunch": 5954,
        "ĠMos": 5955,
        "Ġconnection": 5956,
        "illed": 5957,
        "Ġeth": 5958,
        "isation": 5959,
        "ĠSel": 5960,
        "Ġmultiple": 5961,
        "Ġcounter": 5962,
        "Ġdust": 5963,
        "Before": 5964,
        "RY": 5965,
        "Ġsales": 5966,
        "Ġscientific": 5967,
        "Ġdoors": 5968,
        "ĠSol": 5969,
        "ĠWay": 5970,
        "ivity": 5971,
        "ĠUp": 5972,
        "Ġghost": 5973,
        "Ġproof": 5974,
        "Ġscale": 5975,
        "Ġseriously": 5976,
        "Char": 5977,
        "Ġquant": 5978,
        "Ġguilty": 5979,
        "Ġtraffic": 5980,
        "Ġresc": 5981,
        "'.\"": 5982,
        "ented": 5983,
        "ĠJun": 5984,
        "ĠIslam": 5985,
        "ĠOver": 5986,
        "Ġaircraft": 5987,
        "Ġbackground": 5988,
        "riff": 5989,
        "Ġowner": 5990,
        "ONE": 5991,
        "Ġocean": 5992,
        "Ġpoison": 5993,
        "ĠIrish": 5994,
        "Ġprepar": 5995,
        "Ġrealized": 5996,
        "Ġspect": 5997,
        "pal": 5998,
        "Ġheav": 5999,
        "ĠSur": 6000,
        "Ġescap": 6001,
        "Ġded": 6002,
        "onday": 6003,
        "Ġafterwards": 6004,
        "Ġdiss": 6005,
        "Ġbrave": 6006,
        "aming": 6007,
        "Ġmathem": 6008,
        "esh": 6009,
        "Ġtask": 6010,
        "Ġfilms": 6011,
        "Ġham": 6012,
        "Ġimpl": 6013,
        "Ġcheer": 6014,
        "Ġprogress": 6015,
        "stein": 6016,
        "Ġsched": 6017,
        "Ġcitizens": 6018,
        "overy": 6019,
        "Ġcauses": 6020,
        "inda": 6021,
        "Ġresources": 6022,
        "IE": 6023,
        "vior": 6024,
        "ocal": 6025,
        "ĠWho": 6026,
        "Ġsupported": 6027,
        "Ġemot": 6028,
        "PS": 6029,
        "Ġdetails": 6030,
        "Ġgather": 6031,
        "Ġexpensive": 6032,
        "iform": 6033,
        "Ġplate": 6034,
        "Ġsupply": 6035,
        "Ġpink": 6036,
        "unny": 6037,
        "NO": 6038,
        "iro": 6039,
        "zo": 6040,
        "):": 6041,
        "awa": 6042,
        "Ġsilent": 6043,
        "phant": 6044,
        "Ġdisappoint": 6045,
        "Ġgang": 6046,
        "ĠZealand": 6047,
        "Ġwondering": 6048,
        "ici": 6049,
        "Ġunion": 6050,
        "Ġuniverse": 6051,
        "ĠAT": 6052,
        "ĠHan": 6053,
        "ums": 6054,
        "Ġchain": 6055,
        "Ġweapon": 6056,
        "Ġbat": 6057,
        "ĠLab": 6058,
        "Ġfairly": 6059,
        "Ġreck": 6060,
        "Ġtradition": 6061,
        "Ġvessel": 6062,
        "Ġmental": 6063,
        "aughs": 6064,
        "ĠChair": 6065,
        "Ġshore": 6066,
        "ĠNick": 6067,
        "Ġtransform": 6068,
        "Ġrecording": 6069,
        "ĠEv": 6070,
        "ĠAnother": 6071,
        "ĠCharlie": 6072,
        "icy": 6073,
        "ĠTre": 6074,
        "Ġapprox": 6075,
        "Ġshoulder": 6076,
        "Ġincred": 6077,
        "erk": 6078,
        "Ġblame": 6079,
        "ĠAngel": 6080,
        "Ġwave": 6081,
        "GE": 6082,
        "Ġwings": 6083,
        "Ġnom": 6084,
        "ĠSomet": 6085,
        "Ġguest": 6086,
        "Ġstring": 6087,
        "ĠMY": 6088,
        "ĠLike": 6089,
        "gery": 6090,
        "Ġcosts": 6091,
        "erman": 6092,
        "ĠMem": 6093,
        "Ġclasses": 6094,
        "Ġhidden": 6095,
        "ĠCla": 6096,
        "Ġlevels": 6097,
        "oir": 6098,
        "Ġstro": 6099,
        "Ġsport": 6100,
        "Ġhyp": 6101,
        "Ġunivers": 6102,
        "ĠProvince": 6103,
        "ĠBook": 6104,
        "Ġresponsibility": 6105,
        "ĠDor": 6106,
        "ĠRam": 6107,
        "Ġspin": 6108,
        "ĠCarolina": 6109,
        "Ġpresented": 6110,
        "ĠWE": 6111,
        "ĠBoth": 6112,
        "ĠFort": 6113,
        "Ġvirt": 6114,
        "Ġpassion": 6115,
        "water": 6116,
        "inent": 6117,
        "amily": 6118,
        "Ġadvert": 6119,
        "ĠCommission": 6120,
        "worth": 6121,
        "Ġrac": 6122,
        "Ġcommercial": 6123,
        "ĠSP": 6124,
        "ĠThree": 6125,
        "ĠBra": 6126,
        "Ġthroat": 6127,
        "Ġscr": 6128,
        "Ġtravell": 6129,
        "bel": 6130,
        "UGH": 6131,
        "wa": 6132,
        "Ġplatform": 6133,
        "bey": 6134,
        "ĠIllinois": 6135,
        "Ġoldest": 6136,
        "Ġshirt": 6137,
        "ĠCHAP": 6138,
        "Ġpha": 6139,
        "Ġaband": 6140,
        "Ġcapac": 6141,
        "Ġlabel": 6142,
        "Ne": 6143,
        "Ġgrab": 6144,
        "ĠTri": 6145,
        "ĠMiddle": 6146,
        "Aw": 6147,
        "ĠMod": 6148,
        "vy": 6149,
        "amin": 6150,
        "Ġrefused": 6151,
        "Ġtelephone": 6152,
        "Ġdetermined": 6153,
        "Ġsheep": 6154,
        "Ġsolid": 6155,
        "ĠGra": 6156,
        "ĠUN": 6157,
        "ĠFootball": 6158,
        "gie": 6159,
        "Ġseasons": 6160,
        "Ġbreaking": 6161,
        "Ġcolon": 6162,
        "Jesus": 6163,
        "ordin": 6164,
        "wide": 6165,
        "Ġwaited": 6166,
        "Ġdisappeared": 6167,
        "Ġcousin": 6168,
        "ĠIII": 6169,
        "Ġdread": 6170,
        "Ġstaying": 6171,
        "Ġroyal": 6172,
        "Ġbub": 6173,
        "ĠSon": 6174,
        "ĠTy": 6175,
        "Ġate": 6176,
        "ĠRon": 6177,
        "Ġexistence": 6178,
        "Î¿": 6179,
        "Ġmole": 6180,
        "Ġprincess": 6181,
        "Four": 6182,
        "Ind": 6183,
        "ĠBea": 6184,
        "Ġhook": 6185,
        "Ġlimited": 6186,
        "Ġcards": 6187,
        "Ġfurn": 6188,
        "Ġrocks": 6189,
        "Ġwise": 6190,
        "Ġfeature": 6191,
        "ĠMen": 6192,
        "part": 6193,
        "orse": 6194,
        "Ġattacked": 6195,
        "Ġpill": 6196,
        "ĠAS": 6197,
        "Ġparties": 6198,
        "Ġfinds": 6199,
        "Ġlat": 6200,
        "ĠNE": 6201,
        "Ġ/": 6202,
        "Ġbudget": 6203,
        "ĠChild": 6204,
        "ĠValley": 6205,
        "Ġwire": 6206,
        "owned": 6207,
        "Ġsuffered": 6208,
        "Ġhom": 6209,
        "....\"": 6210,
        "ĠUk": 6211,
        "Ġath": 6212,
        "Ġshame": 6213,
        "Ġchose": 6214,
        "Ġliqu": 6215,
        "Ġeconomy": 6216,
        "ĠKorea": 6217,
        "acter": 6218,
        "Ġjustice": 6219,
        "ati": 6220,
        "Ġtowns": 6221,
        "Ã±": 6222,
        "ĠFour": 6223,
        "Ġblank": 6224,
        "Ġoccurred": 6225,
        "Ġfolks": 6226,
        "esides": 6227,
        "Ġstated": 6228,
        "IL": 6229,
        "Ġdrawn": 6230,
        "Ġhappiness": 6231,
        "Ġartists": 6232,
        "ĠLib": 6233,
        "Ġtournament": 6234,
        "ĠVan": 6235,
        "icted": 6236,
        "Ġflu": 6237,
        "ĠChris": 6238,
        "ĠAdm": 6239,
        "oto": 6240,
        "ĠNorm": 6241,
        "Ġpoll": 6242,
        "Ġangel": 6243,
        "Ġrelax": 6244,
        "Ġanti": 6245,
        "gs": 6246,
        "CT": 6247,
        "pered": 6248,
        "Mic": 6249,
        "eding": 6250,
        "Ġprotection": 6251,
        "Ġfalse": 6252,
        "ĠDi": 6253,
        "Ġgeneration": 6254,
        "ĠHu": 6255,
        "Ġmedal": 6256,
        "Ġstations": 6257,
        "Ġbegins": 6258,
        "Mrs": 6259,
        "hin": 6260,
        "rast": 6261,
        "eaking": 6262,
        "Ġbrill": 6263,
        "unched": 6264,
        "ĠShi": 6265,
        "ĠCa": 6266,
        "ĠWales": 6267,
        "Too": 6268,
        "acher": 6269,
        "ĠSocial": 6270,
        "Ġpolitics": 6271,
        "Ġadmit": 6272,
        "Ġchallenge": 6273,
        "Ġbatter": 6274,
        "Whoo": 6275,
        "athy": 6276,
        "Ġinhabit": 6277,
        "ĠCHAPTER": 6278,
        "Still": 6279,
        "ĠAss": 6280,
        "Ġunus": 6281,
        "Ġcheese": 6282,
        "rence": 6283,
        "lend": 6284,
        "Ġhello": 6285,
        "icket": 6286,
        "Ġvariety": 6287,
        "Ġeditor": 6288,
        "Ġridic": 6289,
        "Ġattended": 6290,
        "Ġconflict": 6291,
        "fortunately": 6292,
        "weet": 6293,
        "Ġlegisl": 6294,
        "bably": 6295,
        "ĠTay": 6296,
        "Ġtouched": 6297,
        "ĠVen": 6298,
        "gly": 6299,
        "urally": 6300,
        "ĠJohnny": 6301,
        "ipping": 6302,
        "ĠCO": 6303,
        "ĠAlan": 6304,
        "Ġrare": 6305,
        "Ġgodd": 6306,
        "acks": 6307,
        "thew": 6308,
        "this": 6309,
        "Ġhomes": 6310,
        "Ġinnocent": 6311,
        "SE": 6312,
        "Ġproposed": 6313,
        "alf": 6314,
        "ĠLeg": 6315,
        "Ġeleven": 6316,
        "Ġtemple": 6317,
        "ĠTony": 6318,
        "ova": 6319,
        "Ġpleasant": 6320,
        "entially": 6321,
        "inson": 6322,
        "Ġarticle": 6323,
        "Ġnormally": 6324,
        "Ġdaily": 6325,
        "ĠTHIS": 6326,
        "ĠEduc": 6327,
        "Ġlone": 6328,
        "Ġpaint": 6329,
        "Ġshr": 6330,
        "inn": 6331,
        "Ġsole": 6332,
        "while": 6333,
        "Ġcig": 6334,
        "Ġveget": 6335,
        "Ġfold": 6336,
        "ĠWhere": 6337,
        "Ġhelps": 6338,
        "enger": 6339,
        "amps": 6340,
        "ĠFe": 6341,
        "Ġlocked": 6342,
        "Ġvent": 6343,
        "Ġeastern": 6344,
        "Ġpa": 6345,
        "Ġstands": 6346,
        "ĠSub": 6347,
        "Ġreferred": 6348,
        "Ġnurs": 6349,
        "Ġsentence": 6350,
        "ĠSenate": 6351,
        "ĠEach": 6352,
        "verse": 6353,
        "Ġax": 6354,
        "Anything": 6355,
        "Ġdegrees": 6356,
        "iments": 6357,
        "ĠJimmy": 6358,
        "Ġconc": 6359,
        "Ġcarbon": 6360,
        "ĠNaz": 6361,
        "ares": 6362,
        "Ġidiot": 6363,
        "Ġrespond": 6364,
        "aka": 6365,
        "Ġinqu": 6366,
        "Ġheight": 6367,
        "Ġunknown": 6368,
        "Ġtreated": 6369,
        "nic": 6370,
        "Ġcateg": 6371,
        "Ġoperations": 6372,
        "Ġaim": 6373,
        "ints": 6374,
        "ologist": 6375,
        "itzerland": 6376,
        "ĠJones": 6377,
        "Ġconsequ": 6378,
        "Ġclimate": 6379,
        "Ġvision": 6380,
        "Ġestablish": 6381,
        "Ġvictim": 6382,
        "ĠElizabeth": 6383,
        "Ġcriminal": 6384,
        "Ġcoal": 6385,
        "Ġequip": 6386,
        "quarters": 6387,
        "Ġswitch": 6388,
        "Ġincreasing": 6389,
        "cest": 6390,
        "Ġtower": 6391,
        "Ġrab": 6392,
        "ronic": 6393,
        "Back": 6394,
        "ĠBoston": 6395,
        "hole": 6396,
        "Ġcontinues": 6397,
        "Ġloose": 6398,
        "ĠMaria": 6399,
        "iac": 6400,
        "uing": 6401,
        "Ġonline": 6402,
        "Ġbite": 6403,
        "ESS": 6404,
        "ĠGer": 6405,
        "ompl": 6406,
        "ĠGal": 6407,
        "Ġflood": 6408,
        "Ġengaged": 6409,
        "Ġfallen": 6410,
        "Ġimpact": 6411,
        "ĠYOUR": 6412,
        "Ġrecognized": 6413,
        "El": 6414,
        "Last": 6415,
        "Ġ\"?\"": 6416,
        "ntil": 6417,
        "enes": 6418,
        "Ġbutton": 6419,
        "Ġfollows": 6420,
        "Ġdiscover": 6421,
        "Ġsuicide": 6422,
        "Ġcommittee": 6423,
        "Ġmail": 6424,
        "ague": 6425,
        "Ġobjects": 6426,
        "Ġterritory": 6427,
        "Ġtied": 6428,
        "which": 6429,
        "Ġassociated": 6430,
        "ario": 6431,
        "Ġdyn": 6432,
        "ĠTele": 6433,
        "run": 6434,
        "Other": 6435,
        "Ġaspect": 6436,
        "Ġfancy": 6437,
        "Ġseek": 6438,
        "Ġframe": 6439,
        "eps": 6440,
        "Ġshadow": 6441,
        "ĠEmperor": 6442,
        "Ġsymbol": 6443,
        "Ġsacrif": 6444,
        "yeah": 6445,
        "Ġpiano": 6446,
        "ĠBarb": 6447,
        "ĠPortug": 6448,
        "Most": 6449,
        "ĠAndrew": 6450,
        "Ġkiller": 6451,
        "coh": 6452,
        "Ġvalues": 6453,
        "\"),": 6454,
        "rical": 6455,
        "ĠLiber": 6456,
        "Ġdistinct": 6457,
        "Ġhundreds": 6458,
        "Ġordinary": 6459,
        "urd": 6460,
        "Ġorange": 6461,
        "iece": 6462,
        "Ġrepeated": 6463,
        "Ġhorn": 6464,
        "Ġsuffering": 6465,
        "Ġpreviously": 6466,
        "Ġcott": 6467,
        "Ġserving": 6468,
        "ĠGil": 6469,
        "Exactly": 6470,
        "Ġinstrument": 6471,
        "Ġmyst": 6472,
        "ĠMarg": 6473,
        "ĠForce": 6474,
        "Ġcas": 6475,
        "uls": 6476,
        "Ġviolence": 6477,
        "Ġhunting": 6478,
        "Ġappeal": 6479,
        "Ġincome": 6480,
        "Five": 6481,
        "isse": 6482,
        "Ġborrow": 6483,
        "ĠEastern": 6484,
        "Ġquit": 6485,
        "Ġacad": 6486,
        "Ġinsp": 6487,
        "Ġrooms": 6488,
        "ĠSwitzerland": 6489,
        "idae": 6490,
        "Ġappreciate": 6491,
        "okes": 6492,
        "Ġhandsome": 6493,
        "Ġtruly": 6494,
        "ez": 6495,
        "ups": 6496,
        "ĠRom": 6497,
        "Ġcommission": 6498,
        "Ġmaintain": 6499,
        "ĠPhilipp": 6500,
        "ela": 6501,
        "Ġpriest": 6502,
        "geant": 6503,
        "ĠHome": 6504,
        "Ġclock": 6505,
        "ĠBern": 6506,
        "Ġconduct": 6507,
        "ĠKong": 6508,
        "IA": 6509,
        "ĠCome": 6510,
        "Ġhast": 6511,
        "Ġdescend": 6512,
        "ĠSteve": 6513,
        "then": 6514,
        "Little": 6515,
        "ĠMu": 6516,
        "Ġdrove": 6517,
        "Ġargument": 6518,
        "stone": 6519,
        "bow": 6520,
        "lar": 6521,
        "Ġsisters": 6522,
        "Ġlit": 6523,
        "Ġsomewhat": 6524,
        "Ġhoping": 6525,
        "ĠKat": 6526,
        "Ġcircumstances": 6527,
        "Ġcute": 6528,
        "Mother": 6529,
        "Ser": 6530,
        "Ġcant": 6531,
        "ava": 6532,
        "Ġcourage": 6533,
        "andy": 6534,
        "OULD": 6535,
        "Ġclever": 6536,
        "Ġaunt": 6537,
        "Ġboyfriend": 6538,
        "Bring": 6539,
        "Ġtie": 6540,
        "ĠPop": 6541,
        "Ġshock": 6542,
        "Ġbenefit": 6543,
        "Ġcompared": 6544,
        "ĠHind": 6545,
        "Ġarran": 6546,
        "Ġclient": 6547,
        "Ġfeatured": 6548,
        "Ġapparently": 6549,
        "Ġestim": 6550,
        "Ġsenior": 6551,
        "iat": 6552,
        "ĠJon": 6553,
        "pret": 6554,
        "Ġimportance": 6555,
        "ĠRecords": 6556,
        "Ġjuice": 6557,
        "ĠBlue": 6558,
        "ĠDef": 6559,
        "âĻ«": 6560,
        "Ġpale": 6561,
        "ricane": 6562,
        "Ġcreature": 6563,
        "unte": 6564,
        "Ġfate": 6565,
        "Ġapple": 6566,
        "Ġproperly": 6567,
        "Ġrecognize": 6568,
        "orpor": 6569,
        "ece": 6570,
        "osphere": 6571,
        "Ġbeer": 6572,
        "ĠSee": 6573,
        "ĠOnly": 6574,
        "Ġlin": 6575,
        "ĠNOT": 6576,
        "Ġexcellent": 6577,
        "Ġbreast": 6578,
        "Ġlimit": 6579,
        "Ġindividuals": 6580,
        "ĠFair": 6581,
        "Ġsuppl": 6582,
        "ĠSimon": 6583,
        "Ġho": 6584,
        "ĠKNOW": 6585,
        "ĠTem": 6586,
        "ĠOx": 6587,
        "Ġcheap": 6588,
        "ito": 6589,
        "Somebody": 6590,
        "ĠLeon": 6591,
        "ĠLuc": 6592,
        "Ġsurvive": 6593,
        "ĠInt": 6594,
        "bridge": 6595,
        "chester": 6596,
        "Ġrestaurant": 6597,
        "ustration": 6598,
        "itty": 6599,
        "Ġbehavior": 6600,
        "Ġâ": 6601,
        "ĠBank": 6602,
        "Ġdeliver": 6603,
        "lev": 6604,
        "standing": 6605,
        "alm": 6606,
        "ĠTime": 6607,
        "emies": 6608,
        "ĠDaniel": 6609,
        "sect": 6610,
        "Ġexplained": 6611,
        "Ġconvin": 6612,
        "\"?\"": 6613,
        "Cap": 6614,
        "Ġbatt": 6615,
        "lla": 6616,
        "ements": 6617,
        "ception": 6618,
        "ĠBus": 6619,
        "Ġrum": 6620,
        "Ġburning": 6621,
        "Ġcontest": 6622,
        "ĠLI": 6623,
        "omer": 6624,
        "Ġnoted": 6625,
        "Ġearned": 6626,
        "ĠArthur": 6627,
        "ĠLes": 6628,
        "onia": 6629,
        "Ġoverall": 6630,
        "AB": 6631,
        "Ġpushed": 6632,
        "Ġconsult": 6633,
        "Ġstom": 6634,
        "Ġintended": 6635,
        "Ġsigns": 6636,
        "Ġunique": 6637,
        "Ġexact": 6638,
        "Ġemp": 6639,
        "Ġagreement": 6640,
        "ĠDun": 6641,
        "Ġequipment": 6642,
        "sters": 6643,
        "Ġcommitted": 6644,
        "ACK": 6645,
        "Ġsou": 6646,
        "ĠDet": 6647,
        "Ġreports": 6648,
        "arrass": 6649,
        "ĠFrancisco": 6650,
        "Ġwebsite": 6651,
        "Ġ\".\"": 6652,
        "ĠFestival": 6653,
        "ieutenant": 6654,
        "Ġok": 6655,
        "ĠCivil": 6656,
        "Ready": 6657,
        "ĠBattle": 6658,
        "Ġobvious": 6659,
        "Ġholds": 6660,
        "ealous": 6661,
        "ĠBon": 6662,
        "ĠAlso": 6663,
        "Ġadvance": 6664,
        "IST": 6665,
        "ĠConn": 6666,
        "ĠNic": 6667,
        "Ġconstant": 6668,
        "ocolate": 6669,
        "arn": 6670,
        "UM": 6671,
        "ĠAsian": 6672,
        "Ġpartners": 6673,
        "ĠVol": 6674,
        "Ġpatients": 6675,
        "sex": 6676,
        "Ġexperiment": 6677,
        "ĠMonday": 6678,
        "gend": 6679,
        "Ġaccomp": 6680,
        "Ġdarkness": 6681,
        "writer": 6682,
        "Ġchampion": 6683,
        "Under": 6684,
        "Ġreject": 6685,
        "Ġsaving": 6686,
        "Ġtrail": 6687,
        "Ġbrings": 6688,
        "phy": 6689,
        "venge": 6690,
        "ĠJersey": 6691,
        "ading": 6692,
        "Ġwithd": 6693,
        "ĠTa": 6694,
        "Show": 6695,
        "Ġgovernor": 6696,
        "ĠList": 6697,
        "usted": 6698,
        "Ġrang": 6699,
        "ĠWater": 6700,
        "Ġmulti": 6701,
        "Ġrot": 6702,
        "Ġofficially": 6703,
        "ĠHAVE": 6704,
        "Ġmeal": 6705,
        "ĠRab": 6706,
        "Ġgoodness": 6707,
        "ĠFound": 6708,
        "Ġperman": 6709,
        "Father": 6710,
        "mn": 6711,
        "etch": 6712,
        "ĠHea": 6713,
        "rot": 6714,
        "iser": 6715,
        "izations": 6716,
        "ĠAlice": 6717,
        "Ġlisted": 6718,
        "rich": 6719,
        "ropol": 6720,
        "Ġadministr": 6721,
        "wich": 6722,
        "Ġow": 6723,
        "ograp": 6724,
        "Ġconference": 6725,
        "Ġcris": 6726,
        "ĠTurk": 6727,
        "Ġsoftware": 6728,
        "ĠService": 6729,
        "ĠJr": 6730,
        "Ġpretend": 6731,
        "Ġexchange": 6732,
        "Ġdesk": 6733,
        "oked": 6734,
        "mo": 6735,
        "Ġcorresp": 6736,
        "Ġbastard": 6737,
        "Ġshel": 6738,
        "Ġbuddy": 6739,
        "Åį": 6740,
        "ĠBab": 6741,
        "ĠBru": 6742,
        "Ġnuclear": 6743,
        "Ġadditional": 6744,
        "Were": 6745,
        "Ġwoods": 6746,
        "atherine": 6747,
        "ĠBerlin": 6748,
        "Ġslept": 6749,
        "Ġeaten": 6750,
        "ĠAtlantic": 6751,
        "Ġmoves": 6752,
        "Ġatm": 6753,
        "ĠEp": 6754,
        "Ġhorrible": 6755,
        "arant": 6756,
        "Ġdepends": 6757,
        "aph": 6758,
        "Ġclosely": 6759,
        "Ġbabies": 6760,
        "mpt": 6761,
        "uns": 6762,
        "aren": 6763,
        "Ġsymp": 6764,
        "Ġaccompl": 6765,
        "ĠShow": 6766,
        "hmm": 6767,
        "eaks": 6768,
        "otic": 6769,
        "ĠIntern": 6770,
        "ĠPacific": 6771,
        "era": 6772,
        "Ġteachers": 6773,
        "Ġassistant": 6774,
        "Ġhistorical": 6775,
        "Ġwished": 6776,
        "Ġlaunched": 6777,
        "HL": 6778,
        "UL": 6779,
        "ĠAv": 6780,
        "aki": 6781,
        "angle": 6782,
        "Ġconcert": 6783,
        "Ġroot": 6784,
        "ĠAdam": 6785,
        "Ġwrest": 6786,
        "Ġnominated": 6787,
        "who": 6788,
        "sha": 6789,
        "Ġstole": 6790,
        "Ġweb": 6791,
        "Ġfriendly": 6792,
        "ppy": 6793,
        "ĠNavy": 6794,
        "uan": 6795,
        "Ġmerely": 6796,
        "Ġgoods": 6797,
        "ĠRa": 6798,
        "Ġsolve": 6799,
        "ĠCharl": 6800,
        "Ġphotograph": 6801,
        "Ġneighborhood": 6802,
        "TV": 6803,
        "iral": 6804,
        "Ġancest": 6805,
        "Ġsplend": 6806,
        "ĠKansas": 6807,
        "sk": 6808,
        "Ġsuck": 6809,
        "Ġkeys": 6810,
        "Ġbedroom": 6811,
        "ĠPL": 6812,
        "Ġclaimed": 6813,
        "force": 6814,
        "Ġbeneath": 6815,
        "ĠAlexander": 6816,
        "there": 6817,
        "Ġmyth": 6818,
        "Ġscript": 6819,
        "Ġcommit": 6820,
        "ĠThan": 6821,
        "hio": 6822,
        "Ġreaction": 6823,
        "Ġproved": 6824,
        "Ġcommonly": 6825,
        "Ġdescribe": 6826,
        "ĠRaj": 6827,
        "ĠAB": 6828,
        "Ġactions": 6829,
        "Boy": 6830,
        "Ġspite": 6831,
        "Ġswimming": 6832,
        "ĠTha": 6833,
        "EM": 6834,
        "ĠTok": 6835,
        "ĠDeath": 6836,
        "Ġtender": 6837,
        "imal": 6838,
        "ERS": 6839,
        "Whe": 6840,
        "sm": 6841,
        "ĠPart": 6842,
        "ĠFilm": 6843,
        "Ġsitu": 6844,
        "Ġtracks": 6845,
        "Ġindustrial": 6846,
        "Ġowe": 6847,
        "ingly": 6848,
        "egal": 6849,
        "Down": 6850,
        "Ġdesper": 6851,
        "Ġcurious": 6852,
        "Ġdefin": 6853,
        "Ġelephant": 6854,
        "asm": 6855,
        "ĠGall": 6856,
        "Ġmarked": 6857,
        "Ġexplos": 6858,
        "Ġembarrass": 6859,
        "based": 6860,
        "Again": 6861,
        "ĠTam": 6862,
        "Ġprime": 6863,
        "ĠAbout": 6864,
        "ĠALL": 6865,
        "ĠPen": 6866,
        "ĠGi": 6867,
        "Time": 6868,
        "bi": 6869,
        "bar": 6870,
        "Ġconqu": 6871,
        "Ġbeast": 6872,
        "Ġvalley": 6873,
        "Ġwinner": 6874,
        "Ġfrightened": 6875,
        "estic": 6876,
        "ĠEle": 6877,
        "ĠSab": 6878,
        "ĠCub": 6879,
        "Ġaside": 6880,
        "Ġcompeted": 6881,
        "ĠBull": 6882,
        "ĠBelg": 6883,
        "Ġromantic": 6884,
        "ĠTommy": 6885,
        "ĠSarah": 6886,
        "ĠHoly": 6887,
        "ĠPrize": 6888,
        "works": 6889,
        "Ġallows": 6890,
        "inity": 6891,
        "Ġ\"Â¶": 6892,
        "Jack": 6893,
        "Ġcomposed": 6894,
        "Ġremaining": 6895,
        "olt": 6896,
        "hess": 6897,
        "Ġcorpor": 6898,
        "TS": 6899,
        "olk": 6900,
        "Ġalcoh": 6901,
        "ĠRo": 6902,
        "Ġfishing": 6903,
        "Ġsettlement": 6904,
        "Ġretire": 6905,
        "incol": 6906,
        "erer": 6907,
        "Ġholiday": 6908,
        "Ġbang": 6909,
        "aze": 6910,
        "Ġinvestigation": 6911,
        "Ġcock": 6912,
        "Ġpuzz": 6913,
        "olen": 6914,
        "Ġwing": 6915,
        "Ġsteel": 6916,
        "ĠNether": 6917,
        "box": 6918,
        "atics": 6919,
        "lers": 6920,
        "Ġ\"\"": 6921,
        "obe": 6922,
        "Eh": 6923,
        "Aren": 6924,
        "Ġbasketball": 6925,
        "ĠJos": 6926,
        "earch": 6927,
        "evin": 6928,
        "Ġridiculous": 6929,
        "Ġbon": 6930,
        "Ġdevil": 6931,
        "Ġgods": 6932,
        "Ġanalysis": 6933,
        "Ġdies": 6934,
        "otal": 6935,
        "ĠLew": 6936,
        "Ġsoci": 6937,
        "Ġinsurance": 6938,
        "met": 6939,
        "itable": 6940,
        "ĠEducation": 6941,
        "lN": 6942,
        "Ġsending": 6943,
        "Ġlift": 6944,
        "Ġgotten": 6945,
        "ĠMir": 6946,
        "ĠNob": 6947,
        "Ġstronger": 6948,
        "Ġtort": 6949,
        "Ġapplication": 6950,
        "fle": 6951,
        "chestra": 6952,
        "ĠShar": 6953,
        "Ġefforts": 6954,
        "Ġmethods": 6955,
        "Ġbones": 6956,
        "Ġlonely": 6957,
        "CA": 6958,
        "mes": 6959,
        "Ġens": 6960,
        "Ġdecor": 6961,
        "ĠBoard": 6962,
        "Ma": 6963,
        "Ġfalls": 6964,
        "Ġemergency": 6965,
        "onic": 6966,
        "Ġmaterials": 6967,
        "Ġwore": 6968,
        "ĠHun": 6969,
        "Ġbathroom": 6970,
        "ĠKorean": 6971,
        "Ġnurse": 6972,
        "Six": 6973,
        "Ġreward": 6974,
        "Ġliterature": 6975,
        "cles": 6976,
        "asp": 6977,
        "Ã§": 6978,
        "inging": 6979,
        "Ġprotest": 6980,
        "Ġconce": 6981,
        "ĠProt": 6982,
        "omy": 6983,
        "Ġexamples": 6984,
        "Ġ!": 6985,
        "ĠGran": 6986,
        "Ġenemies": 6987,
        "onscious": 6988,
        "ika": 6989,
        "ĠBan": 6990,
        "Ġregret": 6991,
        "Ġcritical": 6992,
        "ĠWilliams": 6993,
        "Ġpride": 6994,
        "Ġbrilliant": 6995,
        "Ġmile": 6996,
        "heim": 6997,
        "isy": 6998,
        "Wanna": 6999,
        "ĠOpen": 7000,
        "Ġauthorities": 7001,
        "Mad": 7002,
        "Ġexercise": 7003,
        "Ġnut": 7004,
        "aws": 7005,
        "cri": 7006,
        "new": 7007,
        "Ġsets": 7008,
        "Ġcaptured": 7009,
        "osis": 7010,
        "hamed": 7011,
        "Ġnearby": 7012,
        "Ġtools": 7013,
        "Ġshook": 7014,
        "Ġsurely": 7015,
        "ĠWITH": 7016,
        "ropriate": 7017,
        "ami": 7018,
        "Ġuniform": 7019,
        "Ġoblig": 7020,
        "ĠClass": 7021,
        "Ġmonster": 7022,
        "Ġburst": 7023,
        "Ġgal": 7024,
        "ĠBible": 7025,
        "oof": 7026,
        "iques": 7027,
        "ĠDirector": 7028,
        "gues": 7029,
        "ĠNet": 7030,
        "Ġprote": 7031,
        "ĠSpec": 7032,
        "ĠMid": 7033,
        "Ġnumerous": 7034,
        "ĠRoss": 7035,
        "Ġshared": 7036,
        "Ġstomach": 7037,
        "ĠMeg": 7038,
        "Ġacid": 7039,
        "burgh": 7040,
        "'?\"": 7041,
        "iley": 7042,
        "Ġlands": 7043,
        "Ġestate": 7044,
        "Ġadopted": 7045,
        "bell": 7046,
        "Ġjun": 7047,
        "Ġagg": 7048,
        "Ġmood": 7049,
        "Ġconcl": 7050,
        "Ġconcern": 7051,
        "eau": 7052,
        "car": 7053,
        "irmed": 7054,
        "ourage": 7055,
        "Ġhired": 7056,
        "Ġenjoyed": 7057,
        "ĠScottish": 7058,
        "ierce": 7059,
        "ĠOffice": 7060,
        "Ġmyster": 7061,
        "Ġsimpl": 7062,
        "otted": 7063,
        "ĠHead": 7064,
        "Ġphr": 7065,
        "Ġours": 7066,
        "Ġapplied": 7067,
        "Ġpregnant": 7068,
        "ĠBall": 7069,
        "Ġinstant": 7070,
        "onsense": 7071,
        "Ġcopies": 7072,
        "gging": 7073,
        "ĠBrother": 7074,
        "Ġsalt": 7075,
        "Ġrug": 7076,
        "ĠTimes": 7077,
        "ĠAri": 7078,
        "Ġairport": 7079,
        "Ġattacks": 7080,
        "Ġthrown": 7081,
        "Ġdefeat": 7082,
        "Ġsoil": 7083,
        "ĠGeorgia": 7084,
        "ĠSC": 7085,
        "ĠCAN": 7086,
        "Ġapply": 7087,
        "Ġdealing": 7088,
        "Ġinhabitants": 7089,
        "ogue": 7090,
        "Ġorganized": 7091,
        "sen": 7092,
        "Ġgained": 7093,
        "Ġugly": 7094,
        "Ġdisci": 7095,
        "Ġfortune": 7096,
        "ordon": 7097,
        "achus": 7098,
        "ĠRepresent": 7099,
        "Ġagricult": 7100,
        "Ġben": 7101,
        "aya": 7102,
        "anta": 7103,
        "Ġdelay": 7104,
        "ĠMexican": 7105,
        "ĠSup": 7106,
        "Ġhousehold": 7107,
        "Ġsweetie": 7108,
        "ĠOnce": 7109,
        "encies": 7110,
        "Ġreform": 7111,
        "Ġsorts": 7112,
        "uce": 7113,
        "ĠShan": 7114,
        ",--": 7115,
        "case": 7116,
        "rin": 7117,
        "Ġproced": 7118,
        "Ġcolors": 7119,
        "Ġspo": 7120,
        "ĠArgent": 7121,
        "Ġbutt": 7122,
        "Cong": 7123,
        "Mommy": 7124,
        "Ġsurgery": 7125,
        "Ġobserved": 7126,
        "ĠAsh": 7127,
        "ĠBor": 7128,
        "Ġseats": 7129,
        "Ġfactory": 7130,
        "Ġunusual": 7131,
        "Ġ(,": 7132,
        "ĠNight": 7133,
        "Ġtheme": 7134,
        "Ġfolk": 7135,
        "Ġtoys": 7136,
        "Ġrand": 7137,
        "ĠArts": 7138,
        "ĠAssembly": 7139,
        "Ġdisappear": 7140,
        "Ġdistributed": 7141,
        "Ġsale": 7142,
        "Ġjoint": 7143,
        "Ġpropos": 7144,
        "Ġtear": 7145,
        "Ġdevice": 7146,
        "Ġyard": 7147,
        "onent": 7148,
        "ĠDON": 7149,
        "Ġskills": 7150,
        "Ġdemocr": 7151,
        "ĠDuke": 7152,
        "ĠDNA": 7153,
        "Ġcomplain": 7154,
        "ifying": 7155,
        "Ġrings": 7156,
        "Ġeffective": 7157,
        "Ġattitude": 7158,
        "OUT": 7159,
        "Ġincident": 7160,
        "Dan": 7161,
        "ĠEve": 7162,
        "Ġstruggle": 7163,
        "Ġstranger": 7164,
        "Ġbullet": 7165,
        "Ġhills": 7166,
        "Ġdesert": 7167,
        "Ġexplan": 7168,
        "Ġprize": 7169,
        "WHAT": 7170,
        "ĠViet": 7171,
        "Ġcomplicated": 7172,
        "bet": 7173,
        "asters": 7174,
        "ĠHung": 7175,
        "ĠBroad": 7176,
        "Ġvehicle": 7177,
        "ĠNetherlands": 7178,
        "Ġsuffer": 7179,
        "Honey": 7180,
        "ĠMich": 7181,
        "Ġunable": 7182,
        "keep": 7183,
        "ateful": 7184,
        "Ġannual": 7185,
        "esome": 7186,
        "Ġtrains": 7187,
        "Ġaid": 7188,
        "ĠOper": 7189,
        "ĠOlympic": 7190,
        "agement": 7191,
        "Bill": 7192,
        "Ġ\"âĢĵ": 7193,
        "Ġpermission": 7194,
        "Ġticket": 7195,
        "oti": 7196,
        "ĠRO": 7197,
        "Ġmayor": 7198,
        "Ġburned": 7199,
        "ĠPope": 7200,
        "inking": 7201,
        "Ġpointed": 7202,
        "Ġadvanced": 7203,
        "Ġscientists": 7204,
        "Ġwarning": 7205,
        "Ġpity": 7206,
        "BS": 7207,
        "Ġeager": 7208,
        "oster": 7209,
        "mony": 7210,
        "Ġconfess": 7211,
        "Ġelev": 7212,
        "Ġcrown": 7213,
        "Ġdraft": 7214,
        "Sec": 7215,
        "iy": 7216,
        "Ġbadly": 7217,
        "Abs": 7218,
        "Ġplot": 7219,
        "rogen": 7220,
        "Ġinitial": 7221,
        "Ġlegend": 7222,
        "Ġconsists": 7223,
        "Ġroads": 7224,
        "Ġexclaimed": 7225,
        "Ġdoctors": 7226,
        "ho": 7227,
        "Ġharder": 7228,
        "Ġhearts": 7229,
        "ĠDanny": 7230,
        "Ġgre": 7231,
        "ructed": 7232,
        "Ġopera": 7233,
        "omed": 7234,
        "EF": 7235,
        "bra": 7236,
        "Ġblocks": 7237,
        "ĠVictoria": 7238,
        "Ġhonour": 7239,
        "ithm": 7240,
        "hell": 7241,
        "Ġcong": 7242,
        "Ġsubsequ": 7243,
        "Ġcruel": 7244,
        "athered": 7245,
        "Ġbride": 7246,
        "Ġyards": 7247,
        "ivered": 7248,
        "Ġnights": 7249,
        "etts": 7250,
        "Ġpow": 7251,
        "à¸": 7252,
        "ĠWat": 7253,
        "Ġwhenever": 7254,
        "Ġparish": 7255,
        "Ġteen": 7256,
        "Ġelections": 7257,
        "Ġspare": 7258,
        "Ġislands": 7259,
        "Ġassume": 7260,
        "Ġlesson": 7261,
        "Ste": 7262,
        "Ġriding": 7263,
        "Ġsixth": 7264,
        "Ġjew": 7265,
        "ĠSanta": 7266,
        "Ġpeak": 7267,
        "ĠOffic": 7268,
        "Ġcandidate": 7269,
        "Ġstress": 7270,
        "Ġcultural": 7271,
        "Ġvolume": 7272,
        "Ġta": 7273,
        "ĠBad": 7274,
        "ĠOcean": 7275,
        "pton": 7276,
        "Ġcapable": 7277,
        "Ġfuel": 7278,
        "Ġowners": 7279,
        "Ġvisited": 7280,
        "Ġmeters": 7281,
        "rets": 7282,
        "Ġrandom": 7283,
        "apping": 7284,
        "Ġbelongs": 7285,
        "Ġmoral": 7286,
        "KING": 7287,
        "Ġdun": 7288,
        "Ġpages": 7289,
        "ĠAlf": 7290,
        "Ġleads": 7291,
        "Ġcreating": 7292,
        "Ġseventy": 7293,
        "Ġbalance": 7294,
        "GR": 7295,
        "Ġjealous": 7296,
        "ĠEnter": 7297,
        "Probably": 7298,
        "Ġchampionship": 7299,
        "Ġacts": 7300,
        "Ġsmooth": 7301,
        "ĠChampionships": 7302,
        "ĠHong": 7303,
        "ĠEst": 7304,
        "UCK": 7305,
        "Christ": 7306,
        "inem": 7307,
        "Ġbetray": 7308,
        "Ġidentity": 7309,
        "Äĩ": 7310,
        "Ġwounded": 7311,
        "una": 7312,
        "EST": 7313,
        "Ġwand": 7314,
        "umes": 7315,
        "ieve": 7316,
        "ĠNews": 7317,
        "Ġstairs": 7318,
        "Ġwaves": 7319,
        "Ġbits": 7320,
        "engers": 7321,
        "ĠGolden": 7322,
        "also": 7323,
        "Ġrear": 7324,
        "cip": 7325,
        "Ġangle": 7326,
        "Ġquietly": 7327,
        "adelp": 7328,
        "uties": 7329,
        "ĠCross": 7330,
        "Ġdish": 7331,
        "geon": 7332,
        "ĠFR": 7333,
        "Ġarmed": 7334,
        "ĠHealth": 7335,
        "||||": 7336,
        "Ġphilosophy": 7337,
        "ĠFord": 7338,
        "ĠJerry": 7339,
        "ĠForest": 7340,
        "ĠWalter": 7341,
        "tr": 7342,
        "vo": 7343,
        "Ġpupp": 7344,
        "ĠCur": 7345,
        "Ġven": 7346,
        "Ġbuying": 7347,
        "retty": 7348,
        "Ġcharges": 7349,
        "ĠOk": 7350,
        "ĠAustria": 7351,
        "'\"": 7352,
        "ĠSong": 7353,
        "Ġwaters": 7354,
        "ĠTed": 7355,
        "Ġconclud": 7356,
        "UD": 7357,
        "Ġaffected": 7358,
        "Ġrevealed": 7359,
        "itors": 7360,
        "ĠCL": 7361,
        "orney": 7362,
        "comm": 7363,
        "achusetts": 7364,
        "earest": 7365,
        "Ġvia": 7366,
        "Ġinterrupt": 7367,
        "Ġballs": 7368,
        "Ġtrained": 7369,
        "Ġinterests": 7370,
        "Ġoperating": 7371,
        "uma": 7372,
        "Ġdebt": 7373,
        "Ġruled": 7374,
        "will": 7375,
        "Ġmud": 7376,
        "ĠLincol": 7377,
        "Ġvolunte": 7378,
        "Ġconver": 7379,
        "adelphia": 7380,
        "chief": 7381,
        "ardo": 7382,
        "icing": 7383,
        "ĠNations": 7384,
        "Ġphoto": 7385,
        "Ġcapacity": 7386,
        "ĠMA": 7387,
        "Ġlistened": 7388,
        "utation": 7389,
        "Ġshoulders": 7390,
        "ĠChairman": 7391,
        "Ġwhist": 7392,
        "has": 7393,
        "ti": 7394,
        "aling": 7395,
        "Ġvoices": 7396,
        "Ġcrash": 7397,
        "Ġpainted": 7398,
        "ĠFel": 7399,
        "Ġreference": 7400,
        "Ill": 7401,
        "Ġtropical": 7402,
        "Ġspending": 7403,
        "perial": 7404,
        "Mmm": 7405,
        "ĠRevolution": 7406,
        "ĠLine": 7407,
        "Ġsche": 7408,
        "Ġsmiled": 7409,
        "Ġrelief": 7410,
        "Ġelder": 7411,
        "point": 7412,
        "ĠCop": 7413,
        "aughters": 7414,
        "ART": 7415,
        "Ã©e": 7416,
        "Ġcutting": 7417,
        "Ġtrem": 7418,
        "Ġchart": 7419,
        "Ġapproximately": 7420,
        "stance": 7421,
        "Ġaccur": 7422,
        "Ġrecommend": 7423,
        "Ġinterpret": 7424,
        "Ġsquared": 7425,
        "pson": 7426,
        "Ġgrey": 7427,
        "Ġregions": 7428,
        "Ġdespite": 7429,
        "Ġdozen": 7430,
        "haw": 7431,
        "La": 7432,
        "Ġcrossed": 7433,
        "Ġintroduce": 7434,
        "Fl": 7435,
        "IV": 7436,
        "Ġfart": 7437,
        "Ġreflect": 7438,
        "Ġcooking": 7439,
        "Ġlaunch": 7440,
        "Ġdistribution": 7441,
        "wick": 7442,
        "Ġpants": 7443,
        "ĠBudd": 7444,
        "ĠAnth": 7445,
        "apped": 7446,
        "ranch": 7447,
        "ĠAndy": 7448,
        "Ġlecture": 7449,
        "Ġcenturies": 7450,
        "ygen": 7451,
        "Ġsubs": 7452,
        "Forget": 7453,
        "ĠHolly": 7454,
        "ervative": 7455,
        "Ġmurdered": 7456,
        "ĠHans": 7457,
        "BI": 7458,
        "fish": 7459,
        "Ġgray": 7460,
        "Ġstudying": 7461,
        "Ġcreation": 7462,
        "ii": 7463,
        "Ġexpert": 7464,
        "Ġmarks": 7465,
        "ĠSusan": 7466,
        "Ġguests": 7467,
        "Doesn": 7468,
        "ĠTaylor": 7469,
        "OUN": 7470,
        "Ġmillions": 7471,
        "Ġatmosphere": 7472,
        "Ġbone": 7473,
        "ureau": 7474,
        "Ġdistingu": 7475,
        "Ġgrandfather": 7476,
        "Ġped": 7477,
        "EP": 7478,
        "Ġvast": 7479,
        "Ġtalks": 7480,
        "Ġfuneral": 7481,
        "Ġsecure": 7482,
        "ĠAM": 7483,
        "ĠBC": 7484,
        "ĠFederal": 7485,
        "Ġprogramme": 7486,
        "ursday": 7487,
        "Ġcorrespond": 7488,
        "yes": 7489,
        "kel": 7490,
        "Ġsucceeded": 7491,
        "eh": 7492,
        "Ġfond": 7493,
        "looking": 7494,
        "Ġera": 7495,
        "ĠMatthew": 7496,
        "Su": 7497,
        "ĠLO": 7498,
        "Ġsources": 7499,
        "Ġexciting": 7500,
        "nat": 7501,
        "ĠBO": 7502,
        "mad": 7503,
        "Ġcert": 7504,
        "Ġchocolate": 7505,
        "Ġglobal": 7506,
        "Ġguarant": 7507,
        "Ġuns": 7508,
        "Ġbaseball": 7509,
        "Ġstolen": 7510,
        "Ġfeather": 7511,
        "Ġpersons": 7512,
        "Ġhockey": 7513,
        "ĠFC": 7514,
        "Ġgraduated": 7515,
        "ori": 7516,
        "Ġnoble": 7517,
        "orders": 7518,
        "Ġbom": 7519,
        "Ġstir": 7520,
        "Run": 7521,
        "ĠDam": 7522,
        "Ġentrance": 7523,
        "ĠIslands": 7524,
        "Ġanswers": 7525,
        "Talk": 7526,
        "ĠNO": 7527,
        "Ġillust": 7528,
        "hus": 7529,
        "Ġalgor": 7530,
        "Ġarts": 7531,
        "However": 7532,
        "Ġheadquarters": 7533,
        "iture": 7534,
        "ĠKhan": 7535,
        "Ġprisoners": 7536,
        "ĠOhio": 7537,
        "Ġdeserve": 7538,
        "Ġdistricts": 7539,
        "chers": 7540,
        "**": 7541,
        "Ġbitter": 7542,
        "ĠSometimes": 7543,
        "Ġrhy": 7544,
        "Ġfunctions": 7545,
        "Ġcollea": 7546,
        "uable": 7547,
        "Ġmouse": 7548,
        "rovers": 7549,
        "ensity": 7550,
        "Ã¦": 7551,
        "ĠGreg": 7552,
        "real": 7553,
        "Ġshake": 7554,
        "Ġextended": 7555,
        "ĠSwedish": 7556,
        "hew": 7557,
        "ĠWalk": 7558,
        "Ġstones": 7559,
        "Ġhealthy": 7560,
        "ĠMarc": 7561,
        "aska": 7562,
        "ĠColumbia": 7563,
        "Ġtoile": 7564,
        "Ġalbums": 7565,
        "ĠÂ£": 7566,
        "ĠDisney": 7567,
        "Ġgrace": 7568,
        "rim": 7569,
        "ĠSO": 7570,
        "Ġgenus": 7571,
        "hings": 7572,
        "ondisse": 7573,
        "Ġaffair": 7574,
        "ĠSteven": 7575,
        "Fin": 7576,
        "Ġnick": 7577,
        "Ġinjury": 7578,
        "Ġbul": 7579,
        "ĠAD": 7580,
        "bec": 7581,
        "othy": 7582,
        "Ġinterf": 7583,
        "Ġpractical": 7584,
        "Ġmunicipal": 7585,
        "esc": 7586,
        "Ġnuts": 7587,
        "otte": 7588,
        "Ġjumped": 7589,
        "rane": 7590,
        "Brother": 7591,
        "Ġsan": 7592,
        "Ġsang": 7593,
        "ARD": 7594,
        "ĠMichigan": 7595,
        "aria": 7596,
        "Ġthrill": 7597,
        "ĠInc": 7598,
        "lad": 7599,
        "was": 7600,
        "Ġsquad": 7601,
        "Ġshopping": 7602,
        "ington": 7603,
        "Baby": 7604,
        "ked": 7605,
        "ĠPublic": 7606,
        "Ġfacts": 7607,
        "Ġbranches": 7608,
        "Ġarranged": 7609,
        "Ġloan": 7610,
        "ILL": 7611,
        "Ġmirror": 7612,
        "Ġracing": 7613,
        "aughing": 7614,
        "ĠMassachusetts": 7615,
        "ĠChi": 7616,
        "isms": 7617,
        "ĠBrazilian": 7618,
        "Ġinspect": 7619,
        "Ġconstitution": 7620,
        "long": 7621,
        "Ġanger": 7622,
        "raine": 7623,
        "Ġsites": 7624,
        "ĠPolice": 7625,
        "Ġbanks": 7626,
        "Ġpilot": 7627,
        "erences": 7628,
        "Ġdiscussion": 7629,
        "rete": 7630,
        "utor": 7631,
        "Ġwidely": 7632,
        "Cha": 7633,
        "cow": 7634,
        "five": 7635,
        "owing": 7636,
        "ĠWed": 7637,
        "Ġglasses": 7638,
        "ĠTownship": 7639,
        "ĠNa": 7640,
        "Ġfactor": 7641,
        "Ġconfidence": 7642,
        "ĠPhiladelphia": 7643,
        "ĠPoland": 7644,
        "itter": 7645,
        "Ġdude": 7646,
        "ĠFa": 7647,
        "ĠJess": 7648,
        "Ġspr": 7649,
        "Ġaffairs": 7650,
        "nal": 7651,
        "Ġcompar": 7652,
        "Ġalleg": 7653,
        "Ġevolution": 7654,
        "Ã´": 7655,
        "arah": 7656,
        "ĠAtt": 7657,
        "ederation": 7658,
        "Ge": 7659,
        "Ġselect": 7660,
        "Ġgathered": 7661,
        "Ġinstruct": 7662,
        "Ġsteam": 7663,
        "Ġdifficulty": 7664,
        "Ġsurrounded": 7665,
        "Dear": 7666,
        "eline": 7667,
        "ĠKa": 7668,
        "reck": 7669,
        "ĠRadio": 7670,
        "ĠDave": 7671,
        "inder": 7672,
        "cho": 7673,
        "Ġassign": 7674,
        "Ġprovides": 7675,
        "ĠPers": 7676,
        "western": 7677,
        "ĠBrian": 7678,
        "ĠUP": 7679,
        "Ġchildhood": 7680,
        "Ġconfused": 7681,
        "ĠMcC": 7682,
        "ni": 7683,
        "Ġchecked": 7684,
        "ĠOxford": 7685,
        "TA": 7686,
        "Ġintelligence": 7687,
        "hab": 7688,
        "Ġhi": 7689,
        "Ġknees": 7690,
        "ĠSystem": 7691,
        "ĠIra": 7692,
        "ĠWHAT": 7693,
        "Ġwitch": 7694,
        "Ġlion": 7695,
        "Ġgrade": 7696,
        "Ġsubjects": 7697,
        "Int": 7698,
        "race": 7699,
        "Ġcrap": 7700,
        "Ġindu": 7701,
        "Ġitems": 7702,
        "irus": 7703,
        "Ġimple": 7704,
        "Ġsmiling": 7705,
        "Ġrising": 7706,
        "Goodbye": 7707,
        "Ġedition": 7708,
        "Ġexecutive": 7709,
        "ĠTeam": 7710,
        "berry": 7711,
        "Ġprofession": 7712,
        "ĠLook": 7713,
        "Ġfans": 7714,
        "Ġfigured": 7715,
        "ilton": 7716,
        "ĠAR": 7717,
        "Ġputs": 7718,
        "Ġvictims": 7719,
        "While": 7720,
        "ĠOb": 7721,
        "Ġpoly": 7722,
        "ĠRich": 7723,
        "Ġcollap": 7724,
        "ĠSav": 7725,
        "ulpt": 7726,
        "Ġrib": 7727,
        "Ġloyal": 7728,
        "Ġprojects": 7729,
        "ĠSupreme": 7730,
        "Ġslide": 7731,
        "Absolutely": 7732,
        "Ġtip": 7733,
        "ĠARE": 7734,
        "Ġdecisions": 7735,
        "Ġurban": 7736,
        "ĠBrad": 7737,
        "Ġissued": 7738,
        "ĠWilson": 7739,
        "Ġdemonstr": 7740,
        "eness": 7741,
        "ĠLi": 7742,
        "Ġing": 7743,
        "Ġremove": 7744,
        "Ġdepth": 7745,
        "Ġescaped": 7746,
        "ĠâĢĶ": 7747,
        "Ġsupper": 7748,
        "Ġcommunication": 7749,
        "ĠStephen": 7750,
        "ĠFire": 7751,
        "Ġ+": 7752,
        "irk": 7753,
        "ordan": 7754,
        "IND": 7755,
        "Ġpossibility": 7756,
        "ĠKh": 7757,
        "ĠThus": 7758,
        "Ġviews": 7759,
        "ropolitan": 7760,
        "irds": 7761,
        "Ġindependence": 7762,
        "Ġknocked": 7763,
        "Ġcovers": 7764,
        "azed": 7765,
        "Ġservant": 7766,
        "Sam": 7767,
        "pite": 7768,
        "Ġdefense": 7769,
        "Ġterrif": 7770,
        "eable": 7771,
        "Ġinjured": 7772,
        "Ġreviews": 7773,
        "Ġtow": 7774,
        "THAT": 7775,
        "Check": 7776,
        "Ġrush": 7777,
        "ĠNever": 7778,
        "Ġplastic": 7779,
        "Ġgranted": 7780,
        "ĠBow": 7781,
        "Ġsooner": 7782,
        "aks": 7783,
        "Ġstarring": 7784,
        "ĠLA": 7785,
        "ographer": 7786,
        "iri": 7787,
        "uesday": 7788,
        "Ġcommunities": 7789,
        "'.": 7790,
        "erable": 7791,
        "Ġyo": 7792,
        "Ġpiss": 7793,
        "Ġlap": 7794,
        "ollowing": 7795,
        "Ġbegun": 7796,
        "Pre": 7797,
        "alls": 7798,
        "igg": 7799,
        "Ġheaded": 7800,
        "ĠBetty": 7801,
        "uled": 7802,
        "Ġflash": 7803,
        "Ġdawn": 7804,
        "Ġtries": 7805,
        "Ġreduced": 7806,
        "non": 7807,
        "pass": 7808,
        "ĠScience": 7809,
        "ĠCD": 7810,
        "Ġexha": 7811,
        "icking": 7812,
        "eek": 7813,
        "Happy": 7814,
        "ĠCoast": 7815,
        "ĠCard": 7816,
        "ĠHay": 7817,
        "ĠRel": 7818,
        "Ġbeating": 7819,
        "Ġfairy": 7820,
        "ourse": 7821,
        "po": 7822,
        "Ġreturning": 7823,
        "Ã¡n": 7824,
        "SC": 7825,
        "Ġawards": 7826,
        "Ġsed": 7827,
        "ĠCz": 7828,
        "ĠGame": 7829,
        "umin": 7830,
        "Ġmoments": 7831,
        "Ġbesides": 7832,
        "ĠAk": 7833,
        "Ġcontem": 7834,
        "Ġmodels": 7835,
        "Ġclaims": 7836,
        "onents": 7837,
        "Ġ*\"": 7838,
        "chi": 7839,
        "Ġletting": 7840,
        "ĠJews": 7841,
        "Captain": 7842,
        "eel": 7843,
        "Ġprepare": 7844,
        "ĠMargaret": 7845,
        "TO": 7846,
        "mouth": 7847,
        "ĠBBC": 7848,
        "Ġadministration": 7849,
        "ĠSher": 7850,
        "Ow": 7851,
        "uate": 7852,
        "atically": 7853,
        "ĠWhe": 7854,
        "Ġcharged": 7855,
        "</": 7856,
        "Sha": 7857,
        "ĠNi": 7858,
        "ccer": 7859,
        "Ġheavily": 7860,
        "ĠInternet": 7861,
        "gram": 7862,
        "Ġnecessarily": 7863,
        "elia": 7864,
        "Ġec": 7865,
        "Ġfrag": 7866,
        "rons": 7867,
        "ĠPot": 7868,
        "iner": 7869,
        "Ġevident": 7870,
        "ĠPolish": 7871,
        "Ġchairman": 7872,
        "Ġdeck": 7873,
        "Ġsecretary": 7874,
        "Ġpul": 7875,
        "Ġdiagn": 7876,
        "ĠVill": 7877,
        "Ġuncom": 7878,
        "Ġoccas": 7879,
        "etime": 7880,
        "Ġdriven": 7881,
        "ĠForm": 7882,
        "Ġparliament": 7883,
        "Ġforb": 7884,
        "Ġpersu": 7885,
        "Ġprovin": 7886,
        "Ġceremony": 7887,
        "Better": 7888,
        "Ġdumb": 7889,
        "ierre": 7890,
        "Ġillness": 7891,
        "Ġfoolish": 7892,
        "Ġtoy": 7893,
        "ĠTop": 7894,
        "class": 7895,
        "Ġpoetry": 7896,
        "cript": 7897,
        "ĠConstitution": 7898,
        "Ġsust": 7899,
        "Ġashamed": 7900,
        "Ġimpression": 7901,
        "Ġ\"âĻª\"": 7902,
        "onym": 7903,
        "ĠWinter": 7904,
        "Ġstrict": 7905,
        "Ġsplendid": 7906,
        "itage": 7907,
        "Ġcollabor": 7908,
        "Ġfiction": 7909,
        "osity": 7910,
        "Ġslave": 7911,
        "Ġspiritual": 7912,
        "Ġextent": 7913,
        "Ġawake": 7914,
        "mers": 7915,
        "Ġseparated": 7916,
        "alo": 7917,
        "Ġsorrow": 7918,
        "ĠStone": 7919,
        "Ġrecon": 7920,
        "Ġformal": 7921,
        "Ġreplace": 7922,
        "III": 7923,
        "ĠStation": 7924,
        "antry": 7925,
        "Ġfriendship": 7926,
        "ĠLincoln": 7927,
        "Both": 7928,
        "ĠKn": 7929,
        "Ġconfirmed": 7930,
        "icky": 7931,
        "Ġunlike": 7932,
        "cules": 7933,
        "Ġdomin": 7934,
        "mann": 7935,
        "Ġpersonally": 7936,
        "nesday": 7937,
        "Ġsympt": 7938,
        "ĠTechn": 7939,
        "ĠMayor": 7940,
        "Col": 7941,
        "pers": 7942,
        "Ġtheatre": 7943,
        "ĠToday": 7944,
        "ĠOt": 7945,
        "nedy": 7946,
        "ĠGuard": 7947,
        "Ġneighbour": 7948,
        "Ġastron": 7949,
        "ifer": 7950,
        "Ġwondered": 7951,
        "Ġideal": 7952,
        "Ġtorn": 7953,
        "Ġexhib": 7954,
        "Ġfox": 7955,
        "ĠWild": 7956,
        "ouri": 7957,
        "Ġshortly": 7958,
        "Ġcustomers": 7959,
        "==": 7960,
        "Ġpor": 7961,
        "âĢİ": 7962,
        "Ġmassive": 7963,
        "Ġprinciple": 7964,
        "ifts": 7965,
        "iped": 7966,
        "Ġdefined": 7967,
        "Ġchamber": 7968,
        "Ġdaughters": 7969,
        "ĠSid": 7970,
        "umps": 7971,
        "Ġminds": 7972,
        "Ġtreasure": 7973,
        "Ġdeeply": 7974,
        "Ġwra": 7975,
        "owa": 7976,
        "Hang": 7977,
        "ĠAli": 7978,
        "Ġ-\"": 7979,
        "ĠPa": 7980,
        "IG": 7981,
        "SP": 7982,
        "Ġchoo": 7983,
        "Ġending": 7984,
        "Ġregist": 7985,
        "FL": 7986,
        "equ": 7987,
        "Ġfasc": 7988,
        "Ġnest": 7989,
        "Ġstim": 7990,
        "Stand": 7991,
        "Ġboats": 7992,
        "Ġdipl": 7993,
        "Ġlifted": 7994,
        "door": 7995,
        "Ġalcohol": 7996,
        "Ġopposed": 7997,
        "ĠCastle": 7998,
        "ĠGro": 7999,
        "Ġcontext": 8000,
        "Ġkilomet": 8001,
        "Ġfestival": 8002,
        "Ġmachines": 8003,
        "itled": 8004,
        "ĠLau": 8005,
        "ĠLieutenant": 8006,
        "ĠCON": 8007,
        "ĠBal": 8008,
        "Ġpron": 8009,
        "intend": 8010,
        "Ġpresidential": 8011,
        "bu": 8012,
        "Their": 8013,
        "ĠOUT": 8014,
        "obby": 8015,
        "ailed": 8016,
        "Ġiniti": 8017,
        "Ġpassage": 8018,
        "Ġanxious": 8019,
        "ĠAle": 8020,
        "Ġappropriate": 8021,
        "ounce": 8022,
        "bro": 8023,
        "Ġlung": 8024,
        "ĠMot": 8025,
        "ĠRus": 8026,
        "Ġpir": 8027,
        "Ġgrateful": 8028,
        "Ġscheme": 8029,
        "allel": 8030,
        "Ġbass": 8031,
        "Ġenorm": 8032,
        "Ġleaf": 8033,
        "Ġalternative": 8034,
        "Find": 8035,
        "tery": 8036,
        "Ġpoem": 8037,
        "ĠChap": 8038,
        "Ġcats": 8039,
        "acon": 8040,
        "ĠGET": 8041,
        "Ġreckon": 8042,
        "ĠLewis": 8043,
        "\";": 8044,
        "Ġabsor": 8045,
        "Paul": 8046,
        "via": 8047,
        "urches": 8048,
        "Ġsolo": 8049,
        "Ġlover": 8050,
        "Ġstab": 8051,
        "ilding": 8052,
        "Ġnic": 8053,
        "enses": 8054,
        "Ġrivers": 8055,
        "Ġexisting": 8056,
        "Ġcops": 8057,
        "Ġnaturally": 8058,
        "Ġencoura": 8059,
        "Ġinspired": 8060,
        "ĠCorpor": 8061,
        "ĠRoger": 8062,
        "life": 8063,
        "hibit": 8064,
        "Ġengineer": 8065,
        "Ġfrequently": 8066,
        "ĠTokyo": 8067,
        "LES": 8068,
        "rive": 8069,
        "ĠBart": 8070,
        "agger": 8071,
        "ĠJustice": 8072,
        "Ġassociation": 8073,
        "Ġjournalist": 8074,
        "yard": 8075,
        "Ġinner": 8076,
        "hatt": 8077,
        "ĠDid": 8078,
        "Ġcombined": 8079,
        "iders": 8080,
        "Ġindic": 8081,
        "Ġidentified": 8082,
        "Ġclimb": 8083,
        "Ġvotes": 8084,
        "ĠPost": 8085,
        "ĠRem": 8086,
        "ĠInf": 8087,
        "ĠUt": 8088,
        "Ġprisoner": 8089,
        "Ġworn": 8090,
        "Ġcolumn": 8091,
        "Ã£": 8092,
        "Ġneut": 8093,
        "ipper": 8094,
        "Ġoccupied": 8095,
        "rix": 8096,
        "ĠWel": 8097,
        "akers": 8098,
        "ucker": 8099,
        "adesh": 8100,
        "Ġclubs": 8101,
        "net": 8102,
        "ĠBrook": 8103,
        "ĠSeries": 8104,
        "ĠPict": 8105,
        "ĠEric": 8106,
        "erg": 8107,
        "Ġconvinced": 8108,
        "Ġimplement": 8109,
        "organ": 8110,
        "ĠGram": 8111,
        "Ten": 8112,
        "Ġvel": 8113,
        "ĠFle": 8114,
        "rous": 8115,
        "Ġthrowing": 8116,
        "ĠAnton": 8117,
        "Ġtickets": 8118,
        "Ġepisodes": 8119,
        "ĠOur": 8120,
        "Ġprincipal": 8121,
        "Ġthir": 8122,
        "usting": 8123,
        "Ġinvented": 8124,
        "Ġoxygen": 8125,
        "Ġuser": 8126,
        "Ġreply": 8127,
        "ratulations": 8128,
        "Ġliterally": 8129,
        "ĠMoscow": 8130,
        "ĠPerson": 8131,
        "unts": 8132,
        "Ġcombination": 8133,
        "ĠNap": 8134,
        "erent": 8135,
        "Ġcontrovers": 8136,
        "oos": 8137,
        "ĠDown": 8138,
        "Ġsnake": 8139,
        "ĠÂ¶": 8140,
        "Ġpitch": 8141,
        "Ġunha": 8142,
        "Ġgreatly": 8143,
        "Ġattached": 8144,
        "ĠSpring": 8145,
        "outheast": 8146,
        "Without": 8147,
        "ennes": 8148,
        "Ġhorror": 8149,
        "ĠCommon": 8150,
        "Ġsatisfied": 8151,
        "uv": 8152,
        "ĠElect": 8153,
        "ĠBridge": 8154,
        "Ġcrisis": 8155,
        "mont": 8156,
        "Ġdating": 8157,
        "Ġjury": 8158,
        "Ġpersonality": 8159,
        "Ġscholars": 8160,
        "ĠMarie": 8161,
        "Ġvari": 8162,
        "Ġshift": 8163,
        "izz": 8164,
        "Ġcomputers": 8165,
        "rows": 8166,
        "ĠDaddy": 8167,
        "/>": 8168,
        "Ġmal": 8169,
        "Ġimages": 8170,
        "ĠAirport": 8171,
        "Ġdates": 8172,
        "Ġtransm": 8173,
        "Poor": 8174,
        "Ġviolent": 8175,
        "Ġsoup": 8176,
        "hh": 8177,
        "athan": 8178,
        "ĠSara": 8179,
        "Ġmere": 8180,
        "Ġincredible": 8181,
        "fit": 8182,
        "Ġpositions": 8183,
        "pol": 8184,
        "Ġinsect": 8185,
        "Ġgrav": 8186,
        "Ġengineering": 8187,
        "Ġregarded": 8188,
        "Ġmystery": 8189,
        "Ġhes": 8190,
        "Ġstraw": 8191,
        "Ġacquired": 8192,
        "Ġexplanation": 8193,
        "Ġorganizations": 8194,
        "ĠRh": 8195,
        "Ġpunishment": 8196,
        "De": 8197,
        "ĠUs": 8198,
        "Ask": 8199,
        "Ġtransferred": 8200,
        "Ġnaked": 8201,
        "Ġsevere": 8202,
        "Ġsurre": 8203,
        "Ġcooper": 8204,
        "umph": 8205,
        "Ġprecious": 8206,
        "Ġrescue": 8207,
        "ĠBat": 8208,
        "ĠHard": 8209,
        "lets": 8210,
        "Ġalpha": 8211,
        "Ġsculpt": 8212,
        "Ġregional": 8213,
        "Ġshower": 8214,
        "Ġstops": 8215,
        "Ġprecise": 8216,
        "Ġadmitted": 8217,
        "ordinary": 8218,
        "Ġtests": 8219,
        "ĠEnd": 8220,
        "ĠOrder": 8221,
        "ĠBeth": 8222,
        "ciences": 8223,
        "ĠClint": 8224,
        "uct": 8225,
        "Ġmama": 8226,
        "Ġinher": 8227,
        "Ġintellect": 8228,
        "cription": 8229,
        "ĠCab": 8230,
        "Ġhoped": 8231,
        "SO": 8232,
        "jan": 8233,
        "Ġarticles": 8234,
        "Ġadventure": 8235,
        "des": 8236,
        "Ġbeings": 8237,
        "Ġrope": 8238,
        "Ġbold": 8239,
        "Ġstable": 8240,
        "Ġpicking": 8241,
        "Ġvideos": 8242,
        "Ġ{": 8243,
        "Ġmusician": 8244,
        "ĠBrand": 8245,
        "atoes": 8246,
        "ĠKy": 8247,
        "Ġpurple": 8248,
        "ĠPlan": 8249,
        "uer": 8250,
        "erick": 8251,
        "Ġinches": 8252,
        "General": 8253,
        "ĠTour": 8254,
        "Tomorrow": 8255,
        "cont": 8256,
        "Ġhurts": 8257,
        "bits": 8258,
        "music": 8259,
        "Ġpump": 8260,
        "emon": 8261,
        "Ġdescription": 8262,
        "rum": 8263,
        "Ġfever": 8264,
        "ĠIndians": 8265,
        "BA": 8266,
        "Ġhunt": 8267,
        "bage": 8268,
        "ĠGreece": 8269,
        "Illustration": 8270,
        "ĠIraq": 8271,
        "press": 8272,
        "Ġpour": 8273,
        "note": 8274,
        "ĠHur": 8275,
        "THER": 8276,
        "Ġrapidly": 8277,
        "Ġrice": 8278,
        "ĠVar": 8279,
        "ugg": 8280,
        "Ġofficials": 8281,
        "Ġwhispered": 8282,
        "usive": 8283,
        "Ġthorough": 8284,
        "ĠMah": 8285,
        "Ġswall": 8286,
        "Ġarrive": 8287,
        "Ġbark": 8288,
        "Ġpie": 8289,
        "Ġpasses": 8290,
        "Ġdiscovery": 8291,
        "Ġintention": 8292,
        "ĠTest": 8293,
        "ĠKennedy": 8294,
        "ĠJacob": 8295,
        "oore": 8296,
        "ĠRoy": 8297,
        "Ġprosec": 8298,
        "Ġoperated": 8299,
        "ui": 8300,
        "ĠGa": 8301,
        "Ġdecre": 8302,
        "Ġvaluable": 8303,
        "Ġtypical": 8304,
        "ĠBack": 8305,
        "ĠProdu": 8306,
        "Ġphen": 8307,
        "Ġdownstairs": 8308,
        "Ġrestrict": 8309,
        "Ġtechnical": 8310,
        "bie": 8311,
        "Ġguide": 8312,
        "Ġtank": 8313,
        "lly": 8314,
        "Ġlately": 8315,
        "ĠHospital": 8316,
        "mag": 8317,
        "ĠSn": 8318,
        "ĠBir": 8319,
        "ĠCentre": 8320,
        "Ġbowl": 8321,
        "Ġnations": 8322,
        "ĠSever": 8323,
        "ĠPR": 8324,
        "Ġdece": 8325,
        "Ġillegal": 8326,
        "Ġcontrolled": 8327,
        "Ġrode": 8328,
        "Ġerror": 8329,
        "ĠKentucky": 8330,
        "tical": 8331,
        "Ġpup": 8332,
        "Ġkinda": 8333,
        "Ġproperties": 8334,
        "Ġwishes": 8335,
        "Ġbacter": 8336,
        "Ġhm": 8337,
        "Ġvisual": 8338,
        "ĠColor": 8339,
        "Ġwicked": 8340,
        "Ġment": 8341,
        "iev": 8342,
        "Congratulations": 8343,
        "agers": 8344,
        "avid": 8345,
        "Ġinitially": 8346,
        "Must": 8347,
        "Ġnowhere": 8348,
        "Ġmonkey": 8349,
        "END": 8350,
        "ounced": 8351,
        "Ġpermanent": 8352,
        "Grand": 8353,
        "Ġcausing": 8354,
        "ĠMatt": 8355,
        "ategy": 8356,
        "Ġrefle": 8357,
        "Ġbond": 8358,
        "Ġfaint": 8359,
        "Ġvice": 8360,
        "Ġsyn": 8361,
        "Ġportion": 8362,
        "Ġfulf": 8363,
        "Ġnort": 8364,
        "lete": 8365,
        "adies": 8366,
        "Ġpulling": 8367,
        "Ġbike": 8368,
        "?'": 8369,
        "Ġcreatures": 8370,
        "Ġtesting": 8371,
        "Ġscarce": 8372,
        "EO": 8373,
        "Ġspark": 8374,
        "ĠStory": 8375,
        "erted": 8376,
        "Ġrevenge": 8377,
        "Ġstrategy": 8378,
        "Ġages": 8379,
        "Ġdisturb": 8380,
        "acles": 8381,
        "Ġexpecting": 8382,
        "ĠAlbert": 8383,
        "Ġtool": 8384,
        "Ġasks": 8385,
        "ĠBalt": 8386,
        "ndar": 8387,
        "ĠAdd": 8388,
        "Ġexped": 8389,
        "Ġwins": 8390,
        "emet": 8391,
        "ques": 8392,
        "Ġannoy": 8393,
        "Ġresistance": 8394,
        "Ġabandoned": 8395,
        "Sim": 8396,
        "oration": 8397,
        "ĠThursday": 8398,
        "PP": 8399,
        "Red": 8400,
        "ĠHal": 8401,
        "Ġvillages": 8402,
        "Ġstepped": 8403,
        "ĠReddy": 8404,
        "Ġreign": 8405,
        "andal": 8406,
        "neath": 8407,
        "Ġimmig": 8408,
        "aa": 8409,
        "Ġacted": 8410,
        "Ġpromoted": 8411,
        "iÄĩ": 8412,
        "ĠOw": 8413,
        "Ġclin": 8414,
        "Ġmemories": 8415,
        "ĠGet": 8416,
        "Ġproport": 8417,
        "Ġdigital": 8418,
        "Ġthrone": 8419,
        "called": 8420,
        "ds": 8421,
        "fly": 8422,
        "zes": 8423,
        "Ġraces": 8424,
        "iah": 8425,
        "Ġconstitu": 8426,
        "earer": 8427,
        "ĠCzech": 8428,
        "ĠIce": 8429,
        "Ġcommander": 8430,
        "Ġdefinition": 8431,
        "Ġdiet": 8432,
        "rait": 8433,
        "Ġsheet": 8434,
        "ĠKevin": 8435,
        "Ġessentially": 8436,
        "Jo": 8437,
        "die": 8438,
        "Ġbron": 8439,
        "alem": 8440,
        "Ġprayer": 8441,
        "rose": 8442,
        "ĠFollowing": 8443,
        "orted": 8444,
        "ungle": 8445,
        "nold": 8446,
        "rang": 8447,
        "Ġequation": 8448,
        "Com": 8449,
        "uther": 8450,
        "pent": 8451,
        "Ġcore": 8452,
        "Ġincl": 8453,
        "Ġhug": 8454,
        "Ġdeveloping": 8455,
        "onto": 8456,
        "lock": 8457,
        "Ġ:": 8458,
        "Ġpi": 8459,
        "ĠBand": 8460,
        "arts": 8461,
        "hedral": 8462,
        "atures": 8463,
        "Ġreputation": 8464,
        "Ġskill": 8465,
        "Ġarchitecture": 8466,
        "ĠAnthony": 8467,
        "dney": 8468,
        "Ġbreathing": 8469,
        "Ġadministrative": 8470,
        "ĠJam": 8471,
        "ĠIV": 8472,
        "ĠBul": 8473,
        "ĠStat": 8474,
        "ĠFoundation": 8475,
        "resents": 8476,
        "ĠHistor": 8477,
        "Ġinternal": 8478,
        "ĠPo": 8479,
        "Ġalongside": 8480,
        "ĠHor": 8481,
        "Ġneat": 8482,
        "Ġassault": 8483,
        "Ġdisg": 8484,
        "Ġaccused": 8485,
        "Ġcycl": 8486,
        "Ġgarage": 8487,
        "Pretty": 8488,
        "Ġnarr": 8489,
        "otes": 8490,
        "Ġouter": 8491,
        "Ġsurvey": 8492,
        "Ġobst": 8493,
        "THING": 8494,
        "icit": 8495,
        "Ġholes": 8496,
        "DO": 8497,
        "Ġnap": 8498,
        "Ġabroad": 8499,
        "Ġcampus": 8500,
        "Ġabsolute": 8501,
        "Son": 8502,
        "ĠDer": 8503,
        "Ġeighteen": 8504,
        "Ġadapt": 8505,
        "Ġdomestic": 8506,
[...]
